const unsigned char model_tflite[] = {
  0x28, 0x00, 0x00, 0x00, 0x54, 0x46, 0x4C, 0x33, 0x00, 0x00,
  0x00, 0x00, 0x00, 0x00, 0x00, 0x00, 0x00, 0x00, 0x00, 0x00,
  0x00, 0x00, 0x12, 0x00, 0x1C, 0x00, 0x04, 0x00, 0x08, 0x00,
  0x0C, 0x00, 0x10, 0x00, 0x14, 0x00, 0x00, 0x00, 0x18, 0x00,
  0x12, 0x00, 0x00, 0x00, 0x03, 0x00, 0x00, 0x00, 0x44, 0xA3,
  0x00, 0x00, 0xAC, 0x97, 0x00, 0x00, 0x94, 0x97, 0x00, 0x00,
  0x3C, 0x00, 0x00, 0x00, 0x04, 0x00, 0x00, 0x00, 0x01, 0x00,
  0x00, 0x00, 0x0C, 0x00, 0x00, 0x00, 0x08, 0x00, 0x0C, 0x00,
  0x04, 0x00, 0x08, 0x00, 0x08, 0x00, 0x00, 0x00, 0x08, 0x00,
  0x00, 0x00, 0x11, 0x00, 0x00, 0x00, 0x13, 0x00, 0x00, 0x00,
  0x6D, 0x69, 0x6E, 0x5F, 0x72, 0x75, 0x6E, 0x74, 0x69, 0x6D,
  0x65, 0x5F, 0x76, 0x65, 0x72, 0x73, 0x69, 0x6F, 0x6E, 0x00,
  0x12, 0x00, 0x00, 0x00, 0x40, 0x97, 0x00, 0x00, 0x2C, 0x97,
  0x00, 0x00, 0x00, 0x97, 0x00, 0x00, 0xCC, 0x96, 0x00, 0x00,
  0x88, 0x96, 0x00, 0x00, 0xF4, 0x95, 0x00, 0x00, 0xD0, 0x95,
  0x00, 0x00, 0xBC, 0x02, 0x00, 0x00, 0x68, 0x01, 0x00, 0x00,
  0xB4, 0x00, 0x00, 0x00, 0xA8, 0x00, 0x00, 0x00, 0x94, 0x00,
  0x00, 0x00, 0x80, 0x00, 0x00, 0x00, 0x6C, 0x00, 0x00, 0x00,
  0x58, 0x00, 0x00, 0x00, 0x44, 0x00, 0x00, 0x00, 0x30, 0x00,
  0x00, 0x00, 0x04, 0x00, 0x00, 0x00, 0x46, 0x68, 0xFF, 0xFF,
  0x04, 0x00, 0x00, 0x00, 0x10, 0x00, 0x00, 0x00, 0x31, 0x2E,
  0x35, 0x2E, 0x30, 0x00, 0x00, 0x00, 0x00, 0x00, 0x00, 0x00,
  0x00, 0x00, 0x00, 0x00, 0x00, 0x00, 0x00, 0x00, 0x00, 0x00,
  0x00, 0x00, 0x00, 0x00, 0x00, 0x00, 0x40, 0x5E, 0xFF, 0xFF,
  0x00, 0x00, 0x00, 0x00, 0x00, 0x00, 0x00, 0x00, 0x00, 0x00,
  0x00, 0x00, 0x50, 0x5E, 0xFF, 0xFF, 0x00, 0x00, 0x00, 0x00,
  0x00, 0x00, 0x00, 0x00, 0x00, 0x00, 0x00, 0x00, 0x60, 0x5E,
  0xFF, 0xFF, 0x00, 0x00, 0x00, 0x00, 0x00, 0x00, 0x00, 0x00,
  0x00, 0x00, 0x00, 0x00, 0x70, 0x5E, 0xFF, 0xFF, 0x00, 0x00,
  0x00, 0x00, 0x00, 0x00, 0x00, 0x00, 0x00, 0x00, 0x00, 0x00,
  0x80, 0x5E, 0xFF, 0xFF, 0x00, 0x00, 0x00, 0x00, 0x00, 0x00,
  0x00, 0x00, 0x00, 0x00, 0x00, 0x00, 0x90, 0x5E, 0xFF, 0xFF,
  0x00, 0x00, 0x00, 0x00, 0x00, 0x00, 0x00, 0x00, 0x00, 0x00,
  0x00, 0x00, 0xA0, 0x5E, 0xFF, 0xFF, 0x00, 0x00, 0x00, 0x00,
  0xD6, 0x68, 0xFF, 0xFF, 0x04, 0x00, 0x00, 0x00, 0x96, 0x00,
  0x00, 0x00, 0xF1, 0x12, 0x1E, 0x1A, 0x44, 0x4C, 0x49, 0x58,
  0x20, 0x47, 0x2F, 0x0B, 0x38, 0x1F, 0x0F, 0xCC, 0xB0, 0xB8,
  0xE1, 0xBB, 0x8E, 0xCE, 0x81, 0xA5, 0xAA, 0x36, 0x5F, 0x48,
  0x44, 0x2C, 0x48, 0x42, 0x14, 0x66, 0xF7, 0xAA, 0xC1, 0x7F,
  0x54, 0xC0, 0x02, 0x45, 0x03, 0x75, 0x40, 0x4D, 0x0B, 0x03,
  0x04, 0x7A, 0x40, 0x16, 0x01, 0x81, 0x98, 0xF5, 0x69, 0x13,
  0xF8, 0xC8, 0xB7, 0x35, 0x4D, 0xF4, 0x07, 0x9B, 0x21, 0x63,
  0x3A, 0xF1, 0xF4, 0xCB, 0x01, 0x33, 0x3B, 0xBE, 0xAC, 0x81,
  0x87, 0xC9, 0x97, 0x9B, 0xC1, 0xCD, 0x25, 0xD7, 0x1A, 0x1D,
  0x0D, 0x52, 0x31, 0xF2, 0x2F, 0x12, 0x4E, 0x4E, 0x4F, 0xF5,
  0x4B, 0x1A, 0xFD, 0x54, 0x03, 0x72, 0x54, 0xB4, 0x35, 0x3F,
  0x42, 0xD9, 0xF0, 0x34, 0xFD, 0xDA, 0x4B, 0x37, 0xB1, 0x67,
  0x03, 0x6C, 0x9E, 0x5B, 0x7F, 0x5C, 0x5E, 0x55, 0x4A, 0x1D,
  0xB1, 0xB3, 0x52, 0x31, 0xFA, 0x81, 0xD4, 0x2E, 0x16, 0xB8,
  0xBC, 0xD4, 0x3E, 0xED, 0x96, 0xBA, 0xF7, 0x19, 0xBC, 0xB9,
  0xD6, 0xDF, 0x00, 0x00, 0x00, 0x00, 0x00, 0x00, 0x00, 0x00,
  0x00, 0x00, 0x00, 0x00, 0x00, 0x00, 0x86, 0x69, 0xFF, 0xFF,
  0x04, 0x00, 0x00, 0x00, 0x40, 0x01, 0x00, 0x00, 0x49, 0x4C,
  0x60, 0xDE, 0xC9, 0xC7, 0xD0, 0x46, 0xDF, 0xB2, 0xED, 0x2B,
  0x16, 0x15, 0xAC, 0x07, 0x1D, 0xC5, 0x30, 0xC9, 0x14, 0x42,
  0xE2, 0x65, 0xC6, 0xAC, 0xD4, 0x66, 0x0E, 0x28, 0xFC, 0xBC,
  0xDD, 0xEA, 0x59, 0xDB, 0x53, 0x49, 0x6C, 0xA6, 0x9F, 0x03,
  0xEA, 0xEA, 0xDC, 0x13, 0x88, 0xCA, 0x14, 0x9E, 0xAF, 0x04,
  0x61, 0x68, 0xB8, 0xAC, 0xF9, 0x06, 0xF7, 0xEB, 0xEC, 0xBF,
  0x23, 0xF5, 0xFF, 0x5B, 0xB9, 0x05, 0x43, 0x63, 0xFF, 0x21,
  0x21, 0xA3, 0xAE, 0xAE, 0x64, 0x0A, 0xEB, 0xEE, 0xE5, 0x98,
  0x50, 0x36, 0x23, 0x59, 0x2D, 0xF9, 0x54, 0xC8, 0xD3, 0x20,
  0xC9, 0xAF, 0x31, 0xBC, 0x22, 0xE3, 0x2E, 0x3C, 0x9F, 0xD7,
  0xB2, 0x17, 0x2F, 0x34, 0xF1, 0xD7, 0xE1, 0xC2, 0x01, 0x5C,
  0xB7, 0xC9, 0x57, 0x0A, 0x00, 0x48, 0xD1, 0xB7, 0x4D, 0xD0,
  0x95, 0xDC, 0xA5, 0xCD, 0x57, 0x4C, 0x09, 0xA2, 0x56, 0x12,
  0x54, 0xBD, 0x2A, 0xB9, 0x14, 0xF0, 0x9D, 0xE2, 0x93, 0x42,
  0x37, 0x12, 0xB2, 0x57, 0xD2, 0x5F, 0xB4, 0xDB, 0x3C, 0x2D,
  0x57, 0xB8, 0x46, 0xF3, 0x48, 0xDB, 0x32, 0x19, 0xFD, 0xDE,
  0x4E, 0xF7, 0xC2, 0x06, 0xF1, 0x26, 0xEE, 0x46, 0xCE, 0xF9,
  0x1F, 0xB7, 0x6B, 0xBE, 0x31, 0x23, 0xB8, 0x0F, 0x84, 0x98,
  0x38, 0xBF, 0xA2, 0x11, 0xA5, 0x3B, 0x4C, 0x47, 0xEA, 0x3D,
  0x8E, 0x69, 0xF3, 0xF3, 0xE6, 0x63, 0x03, 0xF8, 0x9B, 0xD7,
  0x23, 0xAD, 0xE9, 0xF0, 0xA1, 0x04, 0x06, 0xF4, 0xD0, 0x5E,
  0x81, 0x86, 0x0D, 0x2F, 0x3D, 0x58, 0xAB, 0x61, 0x02, 0x30,
  0xEF, 0x0B, 0x5D, 0x25, 0xF5, 0xE6, 0x53, 0x90, 0xFB, 0x29,
  0xF1, 0x3F, 0x34, 0xD6, 0x35, 0x97, 0xF1, 0x3A, 0x93, 0x1A,
  0x56, 0xF0, 0x04, 0xC7, 0x56, 0xCF, 0xD1, 0x42, 0x0E, 0x17,
  0x9D, 0x23, 0xEB, 0x98, 0x2A, 0x56, 0x1A, 0x1B, 0x50, 0x34,
  0x99, 0xD0, 0xFC, 0x5E, 0x99, 0xA8, 0x01, 0x03, 0xE8, 0x18,
  0x09, 0xC1, 0xC3, 0xA9, 0x45, 0xC2, 0xC3, 0x55, 0x24, 0x00,
  0x9A, 0x26, 0xF8, 0xC5, 0xEF, 0xD9, 0xCF, 0x0A, 0x9F, 0xE8,
  0xD6, 0xC1, 0xA0, 0xB1, 0x49, 0x48, 0xD6, 0x43, 0x8C, 0x66,
  0x2C, 0xD3, 0x5D, 0x04, 0xD0, 0x4F, 0xB3, 0x53, 0xF0, 0x2B,
  0x86, 0xAE, 0x16, 0xBF, 0x17, 0xF5, 0x44, 0xC4, 0x00, 0x00,
  0x00, 0x00, 0xD6, 0x6A, 0xFF, 0xFF, 0x04, 0x00, 0x00, 0x00,
  0x00, 0x93, 0x00, 0x00, 0xF1, 0x12, 0xFB, 0xFC, 0xFE, 0x05,
  0x11, 0xFF, 0x0E, 0xF0, 0xF9, 0x14, 0xFA, 0x05, 0xF1, 0xF3,
  0xEE, 0xFA, 0x0C, 0xF3, 0xE5, 0xE9, 0xED, 0x0B, 0xFD, 0xDC,
  0xF8, 0xF5, 0xF5, 0xFA, 0xFB, 0xDE, 0x01, 0x03, 0xF1, 0x06,
  0xFE, 0x0D, 0x02, 0x05, 0xFD, 0xF7, 0x17, 0x04, 0x07, 0x10,
  0xF4, 0xFB, 0x15, 0x0E, 0x09, 0x13, 0x0F, 0x01, 0xF8, 0x08,
  0x02, 0x12, 0xFF, 0x09, 0x12, 0x08, 0xF7, 0xFF, 0xE4, 0xFA,
  0x09, 0xE6, 0x0A, 0x0C, 0xE6, 0xFE, 0xF7, 0xFC, 0x0D, 0xF2,
  0x0D, 0x05, 0x13, 0xF6, 0xEE, 0x02, 0xF4, 0x10, 0xFC, 0x04,
  0x10, 0x08, 0x11, 0xF9, 0x17, 0x08, 0xFB, 0xFA, 0x06, 0xFB,
  0xF2, 0x0C, 0xF2, 0xFC, 0xF7, 0xF5, 0x04, 0xE9, 0xF4, 0xF0,
  0xEE, 0x17, 0x01, 0xFD, 0xFD, 0xF7, 0xF2, 0xF0, 0x03, 0xFB,
  0xFD, 0x04, 0x06, 0x0E, 0xFA, 0xF4, 0x14, 0x06, 0x17, 0xE7,
  0xFB, 0x08, 0x1B, 0xFA, 0x11, 0xF0, 0xEC, 0x04, 0x12, 0xF0,
  0x13, 0xF8, 0x05, 0xE6, 0xEE, 0x0F, 0xFB, 0xFA, 0xEB, 0x04,
  0xFF, 0xEE, 0xEC, 0x07, 0xFB, 0x05, 0x07, 0xF3, 0xDF, 0xFB,
  0x14, 0xED, 0x0D, 0xE7, 0xDF, 0xFC, 0xFF, 0xEF, 0x12, 0xEB,
  0x0B, 0xFA, 0xF0, 0x09, 0x00, 0x13, 0xFA, 0xFD, 0x03, 0x0A,
  0x12, 0xF5, 0x0D, 0x12, 0xF8, 0xF6, 0x0D, 0x10, 0xFF, 0x19,
  0xFF, 0xF8, 0xF9, 0x11, 0xF3, 0x11, 0x08, 0x00, 0x14, 0x07,
  0xFC, 0xF5, 0x22, 0x08, 0x07, 0x19, 0x1B, 0xE7, 0x1E, 0xFC,
  0xF2, 0x0A, 0xFF, 0xE2, 0x0B, 0x11, 0x00, 0x0F, 0x0F, 0xE0,
  0x07, 0xFD, 0x06, 0xFD, 0xF3, 0xD4, 0x05, 0xFE, 0xFF, 0x0B,
  0xF8, 0xDB, 0xF0, 0xF8, 0x09, 0x1D, 0x10, 0x0B, 0xE0, 0xF2,
  0x19, 0xF9, 0x18, 0x03, 0xF9, 0x0F, 0x1A, 0x01, 0x0E, 0x17,
  0xF9, 0xF8, 0xF1, 0x05, 0xEE, 0x18, 0x14, 0x00, 0x08, 0x05,
  0x12, 0xFE, 0xF4, 0x16, 0x02, 0xFC, 0x0D, 0x09, 0x1A, 0x0F,
  0x1B, 0xF6, 0x08, 0x16, 0x03, 0x1E, 0x02, 0x09, 0x0E, 0xFB,
  0x02, 0x06, 0x13, 0x0F, 0x1B, 0xEC, 0xFF, 0x04, 0x0F, 0xF7,
  0x0B, 0xF5, 0x05, 0x04, 0x1A, 0x03, 0x09, 0xDF, 0xED, 0x07,
  0x06, 0x0F, 0x17, 0xF1, 0xE6, 0x05, 0x14, 0xF3, 0x0A, 0xDC,
  0xCC, 0x0A, 0x22, 0x0A, 0x1B, 0xEB, 0xE6, 0x08, 0x22, 0x1A,
  0x0A, 0x01, 0xE0, 0x18, 0x1E, 0x11, 0x1C, 0xED, 0xFB, 0x06,
  0x09, 0x21, 0x05, 0xF0, 0xEC, 0x12, 0xF3, 0x23, 0x13, 0xFD,
  0x07, 0x00, 0x1A, 0x0C, 0x24, 0x02, 0x1C, 0x12, 0x13, 0x17,
  0x07, 0x08, 0x07, 0xF8, 0x06, 0x04, 0x1A, 0x20, 0x0B, 0x14,
  0x0D, 0xFA, 0x09, 0xE3, 0x0A, 0xFC, 0x20, 0xFC, 0x02, 0xEC,
  0x0B, 0x1F, 0x07, 0x00, 0x04, 0xD7, 0xF0, 0x05, 0x08, 0x01,
  0x0B, 0xF1, 0xE6, 0xEE, 0xFC, 0xF6, 0x16, 0xE9, 0xD2, 0xFF,
  0x15, 0x06, 0xFC, 0xEA, 0xDF, 0x10, 0x04, 0xEA, 0x1E, 0x26,
  0xDD, 0x0E, 0x11, 0xFB, 0x21, 0x0C, 0xF7, 0x00, 0xF9, 0x05,
  0x04, 0xF7, 0xF9, 0x1A, 0x09, 0x11, 0x18, 0x17, 0x1A, 0x14,
  0x10, 0xF9, 0xFB, 0x13, 0x02, 0x12, 0xF9, 0x06, 0x0C, 0x12,
  0x11, 0x06, 0x18, 0x09, 0x18, 0x0D, 0x20, 0x0D, 0x12, 0xEF,
  0xFF, 0x05, 0x14, 0xF8, 0xFB, 0xFF, 0x04, 0xDD, 0x1F, 0xF4,
  0x05, 0x08, 0x08, 0xC4, 0x1A, 0x02, 0x0D, 0x06, 0x05, 0xEA,
  0xFE, 0x11, 0x1A, 0xFE, 0xF0, 0xDF, 0x07, 0xF8, 0xF1, 0xFF,
  0xFA, 0xF7, 0xE8, 0x1C, 0xFF, 0xEC, 0xF0, 0x18, 0xFB, 0x13,
  0xF5, 0xF0, 0x10, 0x12, 0x19, 0x15, 0xF6, 0xFD, 0xFC, 0x1F,
  0x29, 0xFD, 0x11, 0x01, 0x1F, 0x1B, 0x0F, 0x08, 0x0E, 0xF6,
  0x15, 0x28, 0x0B, 0x10, 0xF8, 0x0A, 0x06, 0xF5, 0x0C, 0x26,
  0xF2, 0x01, 0x0C, 0xFF, 0x0F, 0x19, 0x1F, 0xF7, 0x13, 0xF7,
  0x03, 0x07, 0x09, 0x01, 0x04, 0x16, 0x14, 0xEB, 0xFA, 0xE8,
  0x07, 0xDC, 0x0D, 0xF0, 0x08, 0x0D, 0x02, 0xE6, 0x20, 0x14,
  0xFA, 0xF0, 0x0A, 0xFE, 0xFE, 0x01, 0x08, 0xE8, 0xF9, 0x22,
  0x02, 0x0C, 0xE5, 0x03, 0x08, 0x23, 0xEA, 0x00, 0xF2, 0xF2,
  0x03, 0x25, 0x0C, 0x0C, 0xFD, 0xE2, 0x0B, 0x09, 0x21, 0x0B,
  0xFB, 0x0F, 0xFA, 0x17, 0x26, 0xFA, 0x14, 0x1C, 0x14, 0x23,
  0x16, 0x10, 0x02, 0x11, 0xF9, 0x1D, 0x0C, 0x22, 0x14, 0x14,
  0xFD, 0x14, 0x19, 0x16, 0x08, 0xFF, 0x14, 0xFE, 0x02, 0x03,
  0xFF, 0xFF, 0xFE, 0xFE, 0x09, 0x0B, 0x06, 0x01, 0x08, 0x20,
  0x2F, 0x04, 0xF3, 0xF4, 0xF2, 0xF1, 0x0E, 0x06, 0xF1, 0x08,
  0xF7, 0x17, 0x05, 0xF2, 0x0C, 0x03, 0xF8, 0x2F, 0xDD, 0xF4,
  0x20, 0xF1, 0xE6, 0x4D, 0xD0, 0xE2, 0x05, 0xF4, 0xED, 0x09,
  0x00, 0xE6, 0x0C, 0xE9, 0xFA, 0xD1, 0x12, 0x0A, 0x1B, 0x1B,
  0x01, 0x05, 0x27, 0x13, 0x16, 0x19, 0x1D, 0x14, 0x0E, 0xFD,
  0xF5, 0x1C, 0x0A, 0x05, 0x03, 0x00, 0x04, 0x02, 0x01, 0x00,
  0x14, 0x0F, 0xF7, 0x01, 0x1C, 0x06, 0x12, 0x06, 0xFA, 0x19,
  0xFA, 0xFE, 0x10, 0x02, 0x17, 0x02, 0x23, 0xF3, 0x07, 0x0A,
  0x04, 0x06, 0x17, 0x25, 0x0D, 0xF7, 0xFC, 0x1A, 0x07, 0x11,
  0x0E, 0x09, 0x02, 0x24, 0x08, 0x2E, 0x01, 0xFE, 0xF3, 0x09,
  0xE8, 0x30, 0xFE, 0xF0, 0x0C, 0x0A, 0xE2, 0x16, 0xFC, 0xFF,
  0x05, 0x1F, 0xF0, 0xF0, 0xF0, 0xFA, 0x08, 0x17, 0xF9, 0xE1,
  0x18, 0xED, 0x11, 0x14, 0x0D, 0xF5, 0x0C, 0xF7, 0x0C, 0x1B,
  0x0E, 0x16, 0x0B, 0xFF, 0x1C, 0x0D, 0x17, 0x0B, 0x01, 0x0C,
  0x02, 0xF4, 0xF8, 0xFF, 0x05, 0xF6, 0x0D, 0x03, 0xF5, 0x0D,
  0x11, 0x0C, 0x11, 0xFE, 0xF2, 0xF5, 0xF9, 0x14, 0x07, 0x22,
  0x0E, 0x00, 0xF0, 0x15, 0x16, 0x07, 0x07, 0xF8, 0x0B, 0x0B,
  0xE4, 0x0B, 0x14, 0x1A, 0x0C, 0x08, 0xEF, 0xFD, 0xF4, 0x53,
  0xF5, 0xF7, 0xFE, 0x17, 0x00, 0x54, 0x04, 0x00, 0x1E, 0xF6,
  0x03, 0xFA, 0x07, 0x05, 0x11, 0xFD, 0xE9, 0xE2, 0xF2, 0xFD,
  0xF5, 0x03, 0x0D, 0x04, 0x02, 0x14, 0xEF, 0xFF, 0x06, 0xF7,
  0xFB, 0xF5, 0x08, 0xF9, 0x0E, 0x18, 0xF9, 0x00, 0x16, 0xD4,
  0x0F, 0x09, 0x15, 0xF8, 0x19, 0xE1, 0xEC, 0x11, 0xFD, 0x12,
  0x17, 0x00, 0xE9, 0x0E, 0x05, 0xFF, 0x0C, 0x04, 0xFF, 0x00,
  0x13, 0x1F, 0xF4, 0x0F, 0x06, 0x01, 0xFA, 0x01, 0x1C, 0x1F,
  0x0A, 0x0C, 0xF3, 0xFC, 0x03, 0x13, 0xF3, 0xF8, 0xF1, 0xFF,
  0x00, 0x02, 0x0D, 0x39, 0xFD, 0x09, 0x04, 0xFF, 0xFD, 0x1F,
  0xE9, 0xEA, 0x11, 0xEB, 0x00, 0xED, 0xFF, 0xFB, 0x11, 0x05,
  0xFE, 0x0E, 0x11, 0xF0, 0x00, 0x07, 0xFC, 0x1D, 0x02, 0x05,
  0xFA, 0xEE, 0xF0, 0x0D, 0x08, 0x05, 0xEF, 0xEB, 0x0A, 0xF8,
  0x0F, 0xFF, 0xF0, 0xD7, 0xF3, 0x08, 0xFC, 0x0A, 0x0C, 0xED,
  0xE2, 0x1F, 0xE8, 0xFF, 0xF3, 0xFE, 0xE7, 0x0F, 0x0B, 0xF7,
  0xEF, 0x16, 0x08, 0xFB, 0xF5, 0xF7, 0x09, 0x02, 0x0D, 0xF5,
  0x07, 0x26, 0xF5, 0x0C, 0x1A, 0x06, 0xE7, 0x0F, 0x02, 0x09,
  0xFE, 0xF5, 0xDB, 0xF4, 0x03, 0x0A, 0x05, 0x05, 0xF1, 0x0E,
  0x13, 0x07, 0xF8, 0xFC, 0x00, 0xED, 0x18, 0x08, 0x08, 0x1B,
  0x02, 0xFC, 0x01, 0x13, 0xF8, 0x15, 0xF8, 0xEB, 0xF3, 0xFB,
  0x0B, 0xFC, 0xED, 0xFA, 0xE1, 0xE5, 0xFD, 0x02, 0x05, 0xE1,
  0xE1, 0xF3, 0xE0, 0xEC, 0xFC, 0xE4, 0xEC, 0xE6, 0xFC, 0xFC,
  0xE8, 0xFF, 0xFC, 0xE9, 0xF0, 0xFD, 0x06, 0xF2, 0xFE, 0x12,
  0x03, 0x03, 0x05, 0x01, 0x0F, 0x09, 0xFF, 0xF9, 0x0C, 0x1A,
  0xF2, 0xFF, 0x04, 0xFA, 0x22, 0xFF, 0xF6, 0x1B, 0x14, 0x12,
  0x1E, 0xFC, 0x06, 0x00, 0x15, 0x0E, 0x04, 0x13, 0x12, 0xFF,
  0xF5, 0x0D, 0xF2, 0x0A, 0x11, 0xF5, 0xF8, 0x09, 0xF3, 0x17,
  0x17, 0xFD, 0xEE, 0x0A, 0x0E, 0xEF, 0x12, 0xF7, 0x02, 0x1F,
  0x09, 0xFD, 0xEF, 0xF0, 0x02, 0x13, 0xEC, 0x03, 0xF2, 0xFF,
  0x04, 0x11, 0xDD, 0xFA, 0xE0, 0xFC, 0xEE, 0x0D, 0xF8, 0xE5,
  0xFA, 0x12, 0xE8, 0xF6, 0xE6, 0xEA, 0xFA, 0xF4, 0xFF, 0x0D,
  0x05, 0xE9, 0x02, 0xFD, 0xFB, 0x03, 0xFA, 0xED, 0x07, 0x09,
  0x15, 0x09, 0x08, 0x26, 0xF4, 0x10, 0x13, 0xF7, 0x0B, 0x1B,
  0xF8, 0xFF, 0x11, 0x0B, 0x1A, 0xFE, 0xEC, 0x03, 0x05, 0x18,
  0x19, 0x0D, 0x0E, 0xEB, 0xF8, 0xFE, 0x12, 0xFA, 0x1B, 0xF6,
  0xFD, 0x0C, 0x07, 0x0C, 0xFE, 0xEF, 0xFD, 0x1E, 0xFF, 0x08,
  0xF9, 0x06, 0xFA, 0x1B, 0x02, 0x13, 0x0C, 0x19, 0xEE, 0x0B,
  0x05, 0x01, 0xF8, 0x11, 0xED, 0x04, 0xF1, 0xEF, 0xF9, 0x10,
  0xF6, 0xFA, 0xFF, 0xE0, 0x00, 0xFF, 0xF0, 0x05, 0xF9, 0xEC,
  0xFA, 0x11, 0xF3, 0xF5, 0x0B, 0xED, 0xF7, 0xF6, 0xF9, 0x01,
  0xEA, 0x0E, 0x0E, 0xF1, 0x03, 0x0B, 0xF7, 0x0B, 0x02, 0xF8,
  0x0A, 0xFC, 0xFC, 0x1A, 0xFC, 0x05, 0x10, 0xEE, 0xEB, 0x1F,
  0x1A, 0x04, 0x0D, 0xF2, 0x02, 0x2B, 0x2D, 0x25, 0x28, 0x01,
  0xEB, 0x2C, 0x1B, 0x2B, 0x18, 0x07, 0xF9, 0x25, 0x06, 0x21,
  0x1C, 0x0A, 0xF0, 0x11, 0x1D, 0x0F, 0x02, 0x1D, 0xF1, 0xF7,
  0xF6, 0x01, 0x06, 0xFF, 0xFC, 0x14, 0x0C, 0x12, 0x01, 0x00,
  0xF2, 0x0D, 0x0C, 0x1A, 0x03, 0x06, 0xF4, 0x18, 0x1A, 0xFD,
  0x1E, 0xFC, 0xFD, 0x19, 0xF7, 0x1C, 0xFB, 0x08, 0x01, 0x17,
  0x08, 0x03, 0x03, 0xFC, 0xF5, 0xE9, 0x04, 0xF2, 0xF8, 0x00,
  0x04, 0xE3, 0xF3, 0xEA, 0xE7, 0x00, 0xED, 0xFC, 0xEC, 0xF2,
  0xFB, 0xFC, 0xFB, 0x15, 0xFE, 0x03, 0x15, 0xEE, 0xFE, 0x06,
  0xEE, 0xF6, 0xFB, 0xFD, 0xF7, 0xF9, 0x18, 0xFD, 0xFA, 0x02,
  0x23, 0xF4, 0xF0, 0xEE, 0xFD, 0x11, 0x0B, 0xF9, 0xF9, 0x0B,
  0x0A, 0x01, 0x03, 0xFF, 0x0E, 0x10, 0xFA, 0x02, 0x1E, 0x12,
  0x0D, 0xF5, 0xFB, 0xF8, 0x19, 0x12, 0xFF, 0x06, 0x02, 0xEE,
  0xFE, 0xF3, 0xFE, 0x12, 0x04, 0xFC, 0x08, 0xEF, 0x01, 0xF4,
  0x0F, 0x00, 0x03, 0x0C, 0xF9, 0xF7, 0x0E, 0xEB, 0xF6, 0x01,
  0xF1, 0x0D, 0xEE, 0xFB, 0xF8, 0xE5, 0xE6, 0xF7, 0xE5, 0xED,
  0x03, 0x0C, 0xE9, 0x0B, 0x07, 0x07, 0x11, 0xF0, 0xE6, 0xF8,
  0xF4, 0xF0, 0x07, 0xFA, 0x00, 0x05, 0x03, 0x08, 0x26, 0x18,
  0x07, 0xF0, 0x13, 0xE9, 0xF9, 0xF7, 0x0F, 0xF4, 0x10, 0xF6,
  0x0A, 0x16, 0xED, 0x1A, 0x13, 0xF9, 0xFA, 0xFB, 0x01, 0xEB,
  0x05, 0xF9, 0x00, 0xFA, 0xFE, 0xFC, 0xF2, 0xF3, 0xFF, 0x08,
  0x06, 0xEE, 0xFD, 0x00, 0xF3, 0xEB, 0xE4, 0x00, 0xEA, 0x02,
  0xF9, 0xED, 0x12, 0x04, 0xF9, 0xFE, 0x10, 0xEE, 0xED, 0xF0,
  0xFC, 0xE7, 0x02, 0xFF, 0x0E, 0xF9, 0xF5, 0x0E, 0xE8, 0x04,
  0x11, 0xEE, 0x0D, 0x0D, 0x0A, 0x07, 0xF6, 0x07, 0x0C, 0xEC,
  0x05, 0xF0, 0xF4, 0x0A, 0x02, 0x10, 0x16, 0xF4, 0x14, 0x18,
  0x14, 0xFF, 0x15, 0x01, 0xF3, 0x18, 0x0C, 0xE8, 0x2F, 0x04,
  0xF6, 0x0F, 0x08, 0xF2, 0x34, 0x18, 0xF4, 0x00, 0x07, 0xF2,
  0x28, 0x01, 0x08, 0x10, 0x07, 0xCD, 0xFA, 0xFF, 0x10, 0xF9,
  0xFC, 0xDB, 0xFE, 0xF3, 0xFE, 0x04, 0x07, 0xDB, 0x04, 0x02,
  0x03, 0x11, 0xF1, 0xEE, 0x07, 0xFD, 0xF4, 0xFE, 0xFC, 0xF8,
  0x0A, 0xE8, 0xEF, 0xE7, 0xFA, 0x07, 0xFD, 0xEF, 0xFC, 0x00,
  0x13, 0xF9, 0xF4, 0x0A, 0x0D, 0x0A, 0x00, 0xEE, 0x08, 0x0D,
  0x13, 0x20, 0x17, 0xF6, 0xF6, 0x0C, 0xF4, 0x1F, 0x19, 0x09,
  0x10, 0xF8, 0x00, 0x0F, 0x15, 0x06, 0x0B, 0x03, 0x02, 0x07,
  0x06, 0x0E, 0x1C, 0x07, 0xFE, 0x17, 0xE9, 0xF8, 0x25, 0x0E,
  0x0D, 0x03, 0xF5, 0x03, 0x31, 0x12, 0x05, 0xFB, 0xF8, 0xE3,
  0x0C, 0x06, 0x1C, 0xF8, 0xFB, 0xDF, 0xF8, 0x0A, 0x2E, 0x1F,
  0x20, 0xE5, 0xFA, 0xF9, 0x29, 0x06, 0x18, 0xEB, 0xEB, 0x06,
  0x04, 0x15, 0xF2, 0x09, 0xF2, 0xF6, 0xFA, 0xF6, 0xE9, 0x09,
  0xED, 0x08, 0xF9, 0x0F, 0x0E, 0x10, 0x15, 0x0C, 0x16, 0x0C,
  0x0B, 0xEF, 0xF3, 0xF2, 0x08, 0x08, 0x0D, 0xF2, 0xFD, 0x0A,
  0x10, 0x03, 0x07, 0x0C, 0x22, 0xF6, 0xFB, 0x04, 0xF3, 0xF9,
  0x11, 0x02, 0x08, 0x06, 0x02, 0xFE, 0x07, 0x05, 0xFA, 0xF0,
  0xF3, 0x07, 0x04, 0xF0, 0x0C, 0xF5, 0x04, 0xEC, 0xFD, 0x0F,
  0x08, 0x09, 0xFF, 0x06, 0x13, 0xF0, 0x0F, 0x0B, 0x04, 0xEB,
  0xEF, 0x08, 0x0B, 0x0C, 0x05, 0xE5, 0xDD, 0x1E, 0x21, 0xF9,
  0x13, 0x04, 0xF9, 0x10, 0x19, 0x1E, 0x0E, 0x03, 0xF0, 0xF3,
  0x00, 0x1E, 0xFC, 0xED, 0x08, 0x16, 0xF7, 0x11, 0x00, 0x0E,
  0xFC, 0xF9, 0x08, 0x18, 0x0E, 0xFD, 0x0B, 0x10, 0x14, 0x16,
  0x0B, 0xE6, 0x0E, 0x16, 0x05, 0x15, 0xF4, 0xE6, 0x1F, 0x1A,
  0x08, 0xFC, 0xF2, 0x0A, 0x02, 0x03, 0x1B, 0x04, 0x0A, 0x0E,
  0xE9, 0xF2, 0x0D, 0x03, 0xFD, 0xF9, 0xF6, 0x06, 0x0E, 0x0F,
  0xE5, 0xF6, 0x02, 0xE8, 0xFE, 0x0C, 0x05, 0x09, 0x16, 0x11,
  0x00, 0x16, 0xFE, 0xFB, 0xFB, 0x1C, 0x11, 0x10, 0x24, 0x0A,
  0x0E, 0x24, 0x07, 0xEC, 0x06, 0xFA, 0x02, 0x1A, 0x1F, 0xF9,
  0x2A, 0x0B, 0x05, 0xF0, 0xF1, 0x1E, 0xF8, 0x06, 0xF0, 0x03,
  0xF2, 0xEE, 0xFA, 0xF0, 0xF0, 0x08, 0x08, 0x19, 0x10, 0xF3,
  0xFD, 0x03, 0x02, 0x16, 0x00, 0xFA, 0xF0, 0x1C, 0x0D, 0x1C,
  0x1F, 0x28, 0xDB, 0x0B, 0x17, 0x26, 0x1F, 0x13, 0xCD, 0xFB,
  0x15, 0x17, 0x10, 0xFC, 0xCE, 0xFE, 0x0F, 0x11, 0x08, 0x2C,
  0xF9, 0xF4, 0xF4, 0x14, 0x09, 0x1C, 0x16, 0x04, 0x16, 0x0C,
  0xF6, 0x08, 0x05, 0x02, 0x02, 0x16, 0x0D, 0x1E, 0x1F, 0x02,
  0xF1, 0xF1, 0x13, 0x16, 0x04, 0x07, 0xF2, 0x0B, 0xFE, 0x0B,
  0x29, 0x14, 0x17, 0x06, 0x26, 0x2A, 0x1B, 0x30, 0x19, 0xFC,
  0x11, 0x04, 0xF8, 0x01, 0xF5, 0x0E, 0xED, 0x08, 0xE6, 0xEA,
  0xDD, 0x08, 0x01, 0x0C, 0xE8, 0x18, 0xED, 0x08, 0x1D, 0xF3,
  0xE4, 0x1F, 0xFC, 0x11, 0x0A, 0x23, 0xE9, 0x14, 0x10, 0x1D,
  0x2D, 0x32, 0xE8, 0x05, 0x21, 0x01, 0x08, 0x61, 0xE8, 0x14,
  0x13, 0x0E, 0xF6, 0x42, 0xFA, 0x04, 0x00, 0xFB, 0x0A, 0x27,
  0x06, 0x0C, 0x07, 0x0E, 0x0A, 0xF8, 0x13, 0x16, 0xF6, 0xEA,
  0x01, 0x27, 0x15, 0x09, 0x04, 0x12, 0xFE, 0x0A, 0x0E, 0x17,
  0x0C, 0x12, 0x19, 0x00, 0x25, 0xFE, 0xF4, 0x1C, 0x18, 0x0F,
  0x06, 0x02, 0x21, 0x1A, 0x06, 0x05, 0xEB, 0xFD, 0x05, 0x05,
  0x03, 0xEF, 0x01, 0x0B, 0xD4, 0xFA, 0x03, 0xF1, 0xE1, 0xF3,
  0xCE, 0xFB, 0x0A, 0xFB, 0xCE, 0x05, 0xEA, 0x09, 0xFE, 0x31,
  0xE5, 0x20, 0x05, 0x03, 0x10, 0x3C, 0xE6, 0x1C, 0x05, 0xDD,
  0x0D, 0x47, 0x0B, 0xFC, 0x02, 0xDF, 0xFC, 0x42, 0xFC, 0x0B,
  0x0A, 0x0A, 0xF4, 0x15, 0x03, 0xF3, 0x11, 0x05, 0xFC, 0x0C,
  0x28, 0xEF, 0x0E, 0x12, 0xFC, 0x0E, 0x11, 0x14, 0x09, 0x1A,
  0x16, 0xFE, 0x12, 0x0E, 0x0F, 0x0F, 0xFE, 0xF3, 0x0F, 0x10,
  0x00, 0x21, 0xF8, 0x17, 0xFF, 0x11, 0x1F, 0xFC, 0x0F, 0x11,
  0xF6, 0x03, 0x0A, 0xEF, 0xF9, 0xF1, 0xE4, 0xE9, 0xFD, 0xF5,
  0xEF, 0xEF, 0xF5, 0xEE, 0xEE, 0x09, 0xF4, 0x10, 0xCE, 0xFA,
  0xE0, 0xFD, 0xF9, 0x03, 0xE5, 0x19, 0xFC, 0xDC, 0x0A, 0xFD,
  0xE6, 0x27, 0x0B, 0xEF, 0xFD, 0xE9, 0x0D, 0x07, 0x3B, 0xDC,
  0x06, 0xD3, 0x1D, 0x02, 0x12, 0x14, 0x0B, 0xE9, 0x07, 0x08,
  0xF6, 0x11, 0xE9, 0xFC, 0xF7, 0x11, 0x08, 0x0F, 0x0F, 0x0D,
  0x03, 0x02, 0xF4, 0xFD, 0x0C, 0x0C, 0xFF, 0xFD, 0x02, 0x23,
  0x05, 0x01, 0x11, 0x18, 0x03, 0x00, 0x11, 0xF7, 0x13, 0x0E,
  0x12, 0x07, 0x00, 0xF8, 0xF9, 0xF1, 0xEB, 0x04, 0xDF, 0xF5,
  0x11, 0xDF, 0xEF, 0xE8, 0xFD, 0x00, 0xFF, 0xF7, 0xDC, 0xF4,
  0x0C, 0x14, 0x0A, 0x05, 0x17, 0xF3, 0x00, 0xEC, 0xEB, 0x09,
  0x15, 0xE1, 0x14, 0xD2, 0x00, 0xFB, 0x13, 0xD0, 0x19, 0xD8,
  0x0F, 0x13, 0x18, 0xD1, 0x06, 0xE1, 0x04, 0xF7, 0x0D, 0xEE,
  0xF2, 0x04, 0x19, 0x0E, 0x08, 0xFB, 0xEC, 0x0C, 0x03, 0xEC,
  0xED, 0x1A, 0x0E, 0x10, 0xF5, 0xF4, 0xF8, 0xF2, 0xFB, 0x10,
  0xF8, 0xEF, 0xFF, 0x0D, 0xF5, 0xF2, 0x0B, 0x12, 0x03, 0xFB,
  0xF7, 0xF3, 0x08, 0x0B, 0x14, 0xF3, 0x13, 0x0C, 0x01, 0x05,
  0xF4, 0xF8, 0x0E, 0x07, 0x07, 0x02, 0x0A, 0xEB, 0xFC, 0xF7,
  0x0A, 0xFB, 0xF3, 0xEE, 0xF0, 0xF1, 0xF9, 0x12, 0xF5, 0xD6,
  0xF2, 0xF7, 0xE5, 0x09, 0xFD, 0xE3, 0xFE, 0xFB, 0xE9, 0x07,
  0x10, 0xE5, 0x17, 0xFC, 0x03, 0x02, 0x03, 0xD1, 0x06, 0xF4,
  0x02, 0xF6, 0x14, 0xD9, 0x1A, 0xE8, 0xEA, 0x11, 0xF5, 0x07,
  0x0F, 0xF6, 0xE9, 0xF3, 0xEF, 0x00, 0x0A, 0xEA, 0xEF, 0x08,
  0x0E, 0xF8, 0xEE, 0x0B, 0x09, 0x01, 0x03, 0x0E, 0xF3, 0xF6,
  0xF3, 0x06, 0x04, 0xF5, 0xF2, 0xF0, 0x0F, 0x0B, 0xEE, 0xF4,
  0xE8, 0x10, 0xEB, 0x0C, 0xE9, 0x07, 0x04, 0xF3, 0xF0, 0xF0,
  0xF2, 0x02, 0xF0, 0xF1, 0xFA, 0x01, 0xE8, 0xF9, 0xEE, 0x0C,
  0x0D, 0xF5, 0xF8, 0x14, 0xF8, 0xEB, 0xFF, 0x00, 0xEC, 0x02,
  0x01, 0xEB, 0x0B, 0x02, 0x01, 0x21, 0xF7, 0xEC, 0xFF, 0x02,
  0xE9, 0x08, 0xEE, 0xF6, 0x07, 0xF0, 0xF7, 0x00, 0x03, 0xEA,
  0x0E, 0x07, 0xFC, 0xEB, 0xEF, 0xF9, 0xF5, 0x0C, 0xEB, 0xEB,
  0x0F, 0x04, 0xFD, 0xFD, 0xF4, 0xFE, 0x01, 0x0B, 0xFC, 0xF3,
  0xF1, 0x0F, 0x0F, 0xFA, 0x12, 0xEE, 0xEC, 0xEF, 0x09, 0xF1,
  0x06, 0x0A, 0x0E, 0xEA, 0xF2, 0xF9, 0x0E, 0x06, 0xF8, 0x1A,
  0x0C, 0xF8, 0x1D, 0x00, 0xF6, 0x04, 0xFA, 0x1C, 0xF5, 0xF0,
  0xF2, 0x0A, 0x0C, 0x06, 0x02, 0xFA, 0x09, 0xEC, 0xEE, 0x04,
  0xF9, 0xF4, 0xE0, 0xE4, 0xD9, 0xFB, 0xFD, 0xF7, 0x00, 0x04,
  0x02, 0x17, 0xF8, 0xFC, 0xFE, 0xE4, 0xE3, 0x0D, 0x0B, 0xF0,
  0x00, 0xFA, 0xEB, 0xF0, 0x0B, 0xFB, 0x01, 0x00, 0xF1, 0x0C,
  0x1F, 0xE4, 0xE8, 0x04, 0xFD, 0x11, 0x00, 0xF3, 0x02, 0x09,
  0xF6, 0x04, 0x17, 0xE8, 0x0E, 0xF3, 0xE3, 0x03, 0x1D, 0xFE,
  0x01, 0xF7, 0xFB, 0x0B, 0xF4, 0xF0, 0x10, 0xF4, 0x14, 0x0B,
  0x17, 0x13, 0x0F, 0xFC, 0xFE, 0x1C, 0xF7, 0x1E, 0x06, 0x04,
  0x1F, 0xFB, 0x1B, 0x04, 0xFB, 0x04, 0x00, 0x1C, 0xFC, 0xEC,
  0x0F, 0xFB, 0xFE, 0x0E, 0x15, 0x06, 0xF9, 0x0B, 0xFA, 0xF5,
  0xFA, 0xEF, 0xFB, 0xF5, 0xF9, 0x0B, 0x09, 0x11, 0x05, 0xFF,
  0xF8, 0xF8, 0xF7, 0x0E, 0x12, 0x02, 0x17, 0x01, 0x05, 0x06,
  0x11, 0x14, 0x1B, 0x1F, 0xFB, 0x18, 0x0D, 0x13, 0x12, 0x24,
  0xF5, 0x23, 0x27, 0x13, 0x0D, 0x2A, 0x04, 0x08, 0x22, 0x0E,
  0x0A, 0x22, 0x18, 0x0E, 0x05, 0x00, 0x16, 0x18, 0x10, 0x09,
  0x15, 0x0C, 0xF4, 0xFE, 0x09, 0x17, 0x09, 0x08, 0xFB, 0xF6,
  0x1A, 0x1D, 0x0C, 0x04, 0xFC, 0x18, 0x03, 0x07, 0xFB, 0x0F,
  0x1E, 0x03, 0x0A, 0x12, 0x0C, 0x02, 0x05, 0x10, 0xF8, 0xF4,
  0x05, 0x0F, 0xF2, 0x16, 0xD0, 0x0A, 0xEC, 0x0F, 0x01, 0x22,
  0xCC, 0x0F, 0xF0, 0xFD, 0xE7, 0x25, 0xD8, 0x0B, 0x08, 0x04,
  0x03, 0x35, 0xF4, 0x0B, 0x0A, 0x07, 0x00, 0x1E, 0xF5, 0x0F,
  0x0D, 0x02, 0xF7, 0x28, 0xFB, 0xFD, 0x18, 0x0C, 0x13, 0x12,
  0x11, 0x24, 0x0E, 0x05, 0x22, 0x12, 0x15, 0x0B, 0xFC, 0x14,
  0x21, 0x13, 0x04, 0x03, 0xFE, 0x1F, 0x01, 0x25, 0x12, 0x13,
  0x16, 0x05, 0xFE, 0x04, 0x15, 0x1A, 0x10, 0xFA, 0x04, 0x02,
  0xF3, 0x0E, 0xFD, 0xF8, 0x01, 0x00, 0xF2, 0x14, 0x02, 0x04,
  0xF0, 0xF7, 0xEB, 0xF9, 0xF7, 0x0D, 0xEC, 0x1D, 0xC9, 0xFB,
  0x13, 0xF7, 0xFD, 0x22, 0xB8, 0x00, 0x0E, 0xE0, 0x09, 0x4E,
  0xE7, 0xFA, 0xED, 0xF0, 0x09, 0x34, 0xD0, 0xF8, 0xFB, 0x0D,
  0x0D, 0x40, 0xF0, 0x0F, 0xF6, 0x12, 0x08, 0x32, 0x1F, 0x01,
  0xE8, 0x14, 0x1A, 0x13, 0x32, 0x0B, 0x17, 0x15, 0x06, 0x10,
  0x09, 0x0A, 0x0A, 0x1D, 0x0F, 0x19, 0x1A, 0x08, 0x0A, 0x1A,
  0x12, 0x03, 0x01, 0xF9, 0x0A, 0x01, 0x04, 0xFF, 0x0F, 0xF8,
  0xEE, 0x10, 0xF9, 0xFB, 0x07, 0x04, 0xF6, 0x07, 0x02, 0xFA,
  0xF4, 0x0E, 0x0C, 0xE4, 0x0F, 0x02, 0xDB, 0xFD, 0x0C, 0xF9,
  0xFD, 0x01, 0xD9, 0x08, 0x15, 0xF8, 0xF5, 0x07, 0xC4, 0xFF,
  0x14, 0xFC, 0x07, 0x0C, 0xCA, 0xF6, 0xF5, 0x03, 0xFB, 0x2C,
  0xDA, 0x02, 0xE3, 0x03, 0x00, 0x28, 0x05, 0x0B, 0xFE, 0x13,
  0xEB, 0x38, 0x06, 0x1A, 0xF0, 0xFA, 0x03, 0x3B, 0x0D, 0x16,
  0x0A, 0x19, 0x0C, 0x26, 0x1C, 0x28, 0x26, 0xFB, 0x1B, 0x23,
  0x0D, 0x1B, 0x07, 0x27, 0x1F, 0x26, 0xFD, 0x06, 0x0F, 0x07,
  0x0F, 0x16, 0x12, 0x03, 0xE9, 0xE8, 0x0E, 0x04, 0xDE, 0xFA,
  0xFD, 0xF1, 0x01, 0xF8, 0xCE, 0x07, 0x0F, 0x0B, 0x1E, 0xF7,
  0xCF, 0x07, 0x03, 0xFA, 0x0A, 0x14, 0xDA, 0x0B, 0x19, 0x05,
  0x02, 0xFD, 0xED, 0xFD, 0x23, 0xFD, 0x1A, 0xF0, 0xFF, 0xFE,
  0xE6, 0xE7, 0x03, 0x26, 0x08, 0x0B, 0xE9, 0xD8, 0xF5, 0x0C,
  0xFD, 0x0F, 0xFF, 0xF0, 0xEF, 0x00, 0x09, 0x06, 0x0F, 0x0B,
  0xEF, 0x02, 0x05, 0x09, 0xEF, 0x24, 0x01, 0x0C, 0x2B, 0x1B,
  0x0F, 0x08, 0x16, 0xFD, 0x16, 0x22, 0x1E, 0x13, 0xFE, 0x20,
  0x13, 0xEA, 0x15, 0x05, 0x00, 0x07, 0xE9, 0xF7, 0x0C, 0x03,
  0xF6, 0x01, 0xE9, 0x08, 0xFD, 0x11, 0xF9, 0x1E, 0xD8, 0x0F,
  0xF6, 0x08, 0xFC, 0x06, 0xED, 0x19, 0x0D, 0x04, 0x17, 0x02,
  0xE4, 0x21, 0xF0, 0x16, 0x18, 0x19, 0x12, 0x0A, 0x10, 0xF9,
  0x09, 0x16, 0xFF, 0xFD, 0xE9, 0xE3, 0xF4, 0x36, 0xEA, 0x02,
  0xED, 0xE5, 0x03, 0xFD, 0xE6, 0x0C, 0x16, 0xF1, 0x06, 0xEF,
  0xF7, 0x03, 0xF3, 0x0A, 0xF7, 0xFE, 0xFD, 0xFB, 0x1A, 0x12,
  0x17, 0xEC, 0x15, 0x18, 0x0A, 0x27, 0x11, 0xEF, 0x0B, 0x08,
  0x10, 0xFA, 0xF9, 0x06, 0x03, 0xF1, 0x0C, 0x10, 0x06, 0xF3,
  0x15, 0xFA, 0xF3, 0x12, 0x14, 0x05, 0x15, 0x07, 0x02, 0x01,
  0x17, 0xF5, 0x1A, 0xFF, 0xEF, 0xE9, 0x10, 0xFD, 0x19, 0x0F,
  0x02, 0x00, 0x09, 0xEB, 0x09, 0x09, 0xEA, 0xFD, 0x0B, 0x25,
  0x00, 0x0B, 0xF9, 0xF0, 0x09, 0x42, 0xFE, 0x0C, 0x01, 0xF1,
  0x06, 0x10, 0xE6, 0xE6, 0x14, 0xFA, 0x01, 0xE8, 0xFB, 0xEB,
  0x27, 0x06, 0x08, 0xE8, 0xFB, 0xEE, 0x1B, 0x05, 0xF7, 0xE1,
  0xE4, 0x07, 0x1B, 0xFA, 0x17, 0xDC, 0x04, 0x13, 0x10, 0x07,
  0xF8, 0x05, 0x0D, 0xFA, 0xEF, 0xF1, 0xCE, 0x04, 0x0D, 0xEE,
  0xF5, 0xEE, 0xF6, 0xF5, 0x24, 0xF0, 0x1C, 0x18, 0x0A, 0x1D,
  0x11, 0x0D, 0x0F, 0xFD, 0x0C, 0xF6, 0x0C, 0x0B, 0x0B, 0xFA,
  0x15, 0xE7, 0x01, 0x0C, 0xFA, 0xF0, 0xF6, 0xFB, 0x0C, 0xF3,
  0x0A, 0xE8, 0xED, 0x18, 0xF6, 0xF0, 0x01, 0xF9, 0xEE, 0xEE,
  0x00, 0x00, 0x10, 0x14, 0xF4, 0xEA, 0x0A, 0xE9, 0x0A, 0xFB,
  0xFE, 0xF0, 0xED, 0xED, 0x00, 0x19, 0x10, 0xEF, 0xF2, 0xF5,
  0xFB, 0x11, 0x09, 0xFD, 0xFC, 0xFD, 0x1B, 0xE9, 0x1E, 0xEE,
  0x0D, 0x1E, 0x16, 0xFB, 0x0D, 0x16, 0xEB, 0xFE, 0xF3, 0x04,
  0xD8, 0x02, 0x0B, 0xF2, 0xFF, 0x02, 0xEC, 0x04, 0x06, 0x0B,
  0xFF, 0x11, 0xF5, 0x08, 0xFD, 0x1D, 0x26, 0xF9, 0xFD, 0x0B,
  0x0B, 0x04, 0xFD, 0x15, 0x00, 0x0C, 0x02, 0xFB, 0x10, 0x19,
  0x15, 0xF8, 0xFC, 0xFD, 0xFA, 0x14, 0x01, 0x0B, 0xD4, 0x02,
  0x04, 0x0D, 0x01, 0xE3, 0xF3, 0xF5, 0x22, 0xFD, 0x0C, 0x08,
  0xDF, 0xF2, 0x0E, 0xFE, 0xFF, 0x06, 0x0A, 0xF4, 0x06, 0x07,
  0x07, 0xF6, 0x02, 0x04, 0xFA, 0xF8, 0xFB, 0xF6, 0x06, 0x21,
  0x16, 0xD4, 0x0D, 0xFC, 0x10, 0x1F, 0x02, 0xF7, 0xFC, 0x0B,
  0xF5, 0xF5, 0xFB, 0xFD, 0xE7, 0xFC, 0x0A, 0xF8, 0x17, 0x04,
  0xED, 0xF3, 0x1E, 0x03, 0x12, 0xF7, 0xF5, 0x0E, 0x0A, 0x16,
  0x0B, 0x0D, 0x02, 0xFE, 0xF8, 0x1A, 0xFD, 0x11, 0x0A, 0xEA,
  0x0A, 0x11, 0x14, 0x11, 0x15, 0xFA, 0xFC, 0xFB, 0x05, 0x14,
  0x10, 0x0A, 0x02, 0x0D, 0x13, 0x07, 0x05, 0x05, 0xEE, 0x08,
  0x07, 0xF7, 0xFF, 0x15, 0x04, 0x02, 0x14, 0xF1, 0xFB, 0x03,
  0x02, 0x19, 0x05, 0x18, 0x0C, 0x02, 0x0F, 0x0D, 0xEB, 0xDE,
  0xFA, 0x0D, 0x11, 0x1E, 0x17, 0xD7, 0x0D, 0x0A, 0x14, 0x17,
  0x16, 0xE4, 0xF1, 0x04, 0x09, 0xF6, 0xF4, 0x0C, 0x05, 0xFB,
  0x14, 0x14, 0x0F, 0xF8, 0xF7, 0x1C, 0x21, 0xF1, 0xF3, 0x0F,
  0x09, 0x0F, 0x1E, 0x08, 0x0F, 0x0A, 0xF9, 0xEE, 0x03, 0x16,
  0xEB, 0x04, 0x07, 0x11, 0xF6, 0x01, 0x0C, 0xF3, 0xFE, 0x0C,
  0xFD, 0xFB, 0xF6, 0xFB, 0x02, 0xFA, 0x03, 0x04, 0x1D, 0x16,
  0x07, 0xFD, 0x09, 0x10, 0x10, 0x04, 0xFF, 0xF5, 0x14, 0x14,
  0xF7, 0x1B, 0xF5, 0x18, 0x1A, 0xFB, 0x09, 0xFF, 0x0C, 0x1E,
  0xF9, 0x15, 0x04, 0xF9, 0xFE, 0x11, 0xF8, 0xF9, 0x0F, 0xF5,
  0xFC, 0x17, 0x04, 0xF9, 0x0F, 0xFA, 0x0F, 0xFE, 0xF2, 0xFF,
  0xF4, 0xF8, 0x07, 0xF6, 0x0C, 0x02, 0x14, 0xF6, 0x03, 0x0E,
  0x13, 0xE8, 0x0A, 0x05, 0xE2, 0x1C, 0x0F, 0x0B, 0x06, 0xE9,
  0xF8, 0xF4, 0x0B, 0x09, 0xF9, 0xE1, 0x0D, 0x01, 0x02, 0x03,
  0xF4, 0xE4, 0xEF, 0xE8, 0x15, 0x16, 0xF7, 0xEC, 0xFC, 0x0B,
  0x09, 0x0C, 0x03, 0xEF, 0x0F, 0xFA, 0x02, 0x17, 0x05, 0x06,
  0xFE, 0x14, 0x04, 0xFB, 0xF5, 0xFD, 0xFE, 0x08, 0x0B, 0xF4,
  0x05, 0x02, 0xF2, 0xFF, 0x00, 0x0B, 0xED, 0xF5, 0x0D, 0x0F,
  0xF3, 0x0C, 0x11, 0x16, 0x08, 0x16, 0x15, 0x00, 0xF3, 0x13,
  0xEF, 0xFC, 0xFC, 0xFF, 0xF9, 0x08, 0xF8, 0x04, 0x07, 0xF2,
  0xF8, 0x10, 0x0F, 0x1C, 0xFF, 0x02, 0x09, 0x12, 0xE6, 0x13,
  0xF9, 0xDE, 0x01, 0x06, 0xF5, 0x13, 0xFC, 0xF8, 0x02, 0xF3,
  0xDD, 0x09, 0xE5, 0xE0, 0xF3, 0xE3, 0xE9, 0xD1, 0xDD, 0xF0,
  0x04, 0xD3, 0x06, 0x07, 0xFC, 0xF4, 0xEA, 0xDC, 0xE9, 0x08,
  0xFA, 0xFE, 0xE3, 0xEF, 0x04, 0xF8, 0xE4, 0xE3, 0xF8, 0x02,
  0x0A, 0x17, 0xEE, 0x01, 0xF0, 0x1D, 0x11, 0x0A, 0xFE, 0xEA,
  0x07, 0x00, 0xFF, 0x0B, 0xFE, 0xEB, 0x12, 0xF7, 0xF3, 0x09,
  0xFD, 0x16, 0xFA, 0x1D, 0xF0, 0x19, 0x09, 0x0C, 0x15, 0x0A,
  0xFA, 0x03, 0x08, 0xFF, 0x0A, 0x0A, 0xF0, 0xE8, 0xEC, 0x0C,
  0xFF, 0xF1, 0xFC, 0xED, 0x10, 0x08, 0xF4, 0xF2, 0xF5, 0xFD,
  0x04, 0xFB, 0x0D, 0x0F, 0xF8, 0xF3, 0xFA, 0x0F, 0xEF, 0x03,
  0xF4, 0x02, 0xFD, 0xF3, 0x08, 0xEE, 0x08, 0x0E, 0xFA, 0xEC,
  0x0D, 0xED, 0xF9, 0x0E, 0xF7, 0xFC, 0x0E, 0xF7, 0xF4, 0xF7,
  0xF9, 0x00, 0x06, 0xF7, 0x07, 0x00, 0xE9, 0x00, 0x12, 0xF8,
  0x0A, 0xF8, 0xEC, 0x0C, 0x01, 0xF8, 0x0A, 0x03, 0x0A, 0xF6,
  0x0B, 0xED, 0x01, 0xE9, 0xF7, 0x0E, 0xEF, 0xFC, 0xF8, 0xE9,
  0xEF, 0xFB, 0x0D, 0x05, 0x11, 0xE8, 0xFA, 0xF5, 0x06, 0xF5,
  0xFA, 0x02, 0xF1, 0x02, 0xF0, 0xFB, 0xFF, 0x0A, 0xEA, 0xF4,
  0x12, 0xEE, 0xF6, 0x03, 0xFD, 0xFB, 0xFB, 0xFC, 0x03, 0x00,
  0xEB, 0xED, 0x09, 0x04, 0x12, 0xFC, 0xF8, 0xF4, 0x09, 0x0F,
  0x0F, 0xEF, 0xED, 0x0F, 0xF5, 0xEC, 0xFC, 0xEB, 0x06, 0xFD,
  0x11, 0xF9, 0xFC, 0xEB, 0xF3, 0xFD, 0xFC, 0xF2, 0x14, 0xEB,
  0x04, 0xEE, 0xEF, 0x0D, 0xF1, 0xFA, 0x01, 0xF5, 0xFD, 0x0F,
  0xF6, 0x01, 0x0A, 0x0F, 0xEA, 0xEE, 0x03, 0xF8, 0xFB, 0x14,
  0x0A, 0xF0, 0xFB, 0xF0, 0xFD, 0xFA, 0x04, 0xED, 0xEC, 0xF1,
  0xE8, 0xFA, 0x10, 0xEA, 0x12, 0xF8, 0x05, 0xF7, 0xF7, 0xF7,
  0x03, 0xF9, 0x07, 0xEE, 0x03, 0xF3, 0x05, 0x0C, 0x0A, 0xEE,
  0xFF, 0x08, 0x0E, 0x0A, 0x04, 0xEF, 0xFC, 0xFB, 0xEE, 0xF5,
  0xF1, 0xF5, 0x0A, 0x12, 0xFF, 0x09, 0xE8, 0x13, 0xF5, 0xF2,
  0x0F, 0xFB, 0xFD, 0xFC, 0xF8, 0xEF, 0xF7, 0x08, 0xEB, 0xF2,
  0xF4, 0xF3, 0xF5, 0xFA, 0xE8, 0x0B, 0xEC, 0xFF, 0x0E, 0xFD,
  0x0F, 0xFC, 0x10, 0xF2, 0x08, 0xF9, 0xF1, 0x08, 0xEF, 0x0D,
  0x0D, 0x0C, 0x03, 0xF9, 0x0C, 0xFC, 0x02, 0x04, 0xFB, 0xEC,
  0xEE, 0xE9, 0x02, 0xF9, 0x09, 0xFD, 0xF4, 0xF4, 0x13, 0xF7,
  0xF9, 0xF0, 0xEA, 0x08, 0xF3, 0xF4, 0xEB, 0x0F, 0xEA, 0x07,
  0xF0, 0xEC, 0xF0, 0xF6, 0x04, 0xF6, 0xED, 0x10, 0xFD, 0xF0,
  0x0A, 0xEF, 0xED, 0xFB, 0x0D, 0xF9, 0x0A, 0xEF, 0xF7, 0xF3,
  0xEB, 0xFF, 0x0D, 0x09, 0x0E, 0xEC, 0x08, 0xF2, 0xEB, 0xEF,
  0x09, 0xFD, 0x07, 0x12, 0xF4, 0xF1, 0x03, 0xF0, 0x03, 0xFD,
  0xEE, 0xFA, 0xEF, 0x0F, 0xFF, 0x05, 0xF4, 0x03, 0xEF, 0xF5,
  0x00, 0xF6, 0x06, 0xF4, 0x05, 0xF7, 0xFB, 0xF1, 0x0C, 0x0E,
  0x05, 0x04, 0xEB, 0x14, 0x0D, 0xE9, 0x08, 0xFC, 0xF1, 0x0B,
  0xF9, 0xF7, 0x10, 0xFE, 0x08, 0xFF, 0xF0, 0xEE, 0x0D, 0x0E,
  0xEE, 0x05, 0xE8, 0xFE, 0x0B, 0xE7, 0xFA, 0x09, 0x0C, 0x0F,
  0xFF, 0xEA, 0xED, 0x0F, 0x07, 0x02, 0xEB, 0xF4, 0xE9, 0xF2,
  0xEB, 0x08, 0xE8, 0xF4, 0xF8, 0x0A, 0xFB, 0xEE, 0x02, 0xE8,
  0xEF, 0xED, 0xF3, 0x0C, 0x01, 0xFC, 0x0D, 0xEC, 0x0E, 0xE6,
  0x10, 0x0D, 0xEB, 0xFD, 0x07, 0x0C, 0x03, 0xFB, 0xED, 0xEC,
  0x12, 0x0E, 0x09, 0xFF, 0xF4, 0xEB, 0xF1, 0xF1, 0xEF, 0xF0,
  0x01, 0xEE, 0xEB, 0xF7, 0xF1, 0x05, 0x07, 0x14, 0x11, 0xF7,
  0x07, 0xF0, 0x06, 0x11, 0xEA, 0x08, 0xEC, 0xE9, 0x01, 0xFC,
  0xEE, 0xF7, 0xFF, 0x04, 0xFD, 0x0C, 0xE9, 0x09, 0xE5, 0xFB,
  0x00, 0xEF, 0xE9, 0xFC, 0x0B, 0x0A, 0x02, 0x06, 0x02, 0xF0,
  0xF6, 0x03, 0xED, 0x0E, 0x08, 0xEF, 0xF2, 0xF7, 0x01, 0x0B,
  0x06, 0xFE, 0xE8, 0x00, 0xF4, 0xF6, 0xFD, 0xFD, 0xF6, 0xFC,
  0xE8, 0xEB, 0x0B, 0xEF, 0x0C, 0xF5, 0xE7, 0x09, 0xE9, 0x02,
  0x08, 0xF9, 0x09, 0xF7, 0xFB, 0xEF, 0xF9, 0x10, 0xEC, 0xF1,
  0xF4, 0x00, 0x02, 0xEC, 0x0D, 0xF7, 0xF6, 0xF7, 0x05, 0xF4,
  0x0C, 0x02, 0xF8, 0x0B, 0x0B, 0x0A, 0xFE, 0xFC, 0xF4, 0xF6,
  0xFC, 0xFD, 0xF7, 0xF6, 0x01, 0xFD, 0xE6, 0x11, 0xF3, 0x09,
  0xFA, 0xF7, 0xF2, 0x13, 0xF8, 0x08, 0x05, 0xE7, 0xF8, 0xF4,
  0xF7, 0xED, 0xEE, 0xF8, 0xEA, 0xEC, 0x0B, 0xE4, 0xF8, 0x05,
  0xEF, 0xFD, 0x06, 0xEE, 0xFE, 0xF5, 0xFC, 0xEA, 0x02, 0xFC,
  0xF1, 0x09, 0x09, 0x00, 0xF2, 0x0F, 0xFA, 0xFA, 0x11, 0x09,
  0x05, 0x09, 0x06, 0x13, 0xEB, 0xF5, 0x0D, 0xE8, 0xEB, 0x07,
  0x00, 0xF8, 0xEC, 0x07, 0xE6, 0xF5, 0xF7, 0xF0, 0x0F, 0x07,
  0x01, 0x02, 0x03, 0xEA, 0xEB, 0x0E, 0xEE, 0xFC, 0x14, 0xE8,
  0xED, 0x0F, 0xF6, 0xFF, 0x05, 0x0F, 0xE7, 0x0C, 0xFF, 0xF3,
  0xE7, 0xF8, 0xEA, 0xFC, 0x09, 0x02, 0x05, 0xED, 0x04, 0xE8,
  0xFB, 0xF4, 0x01, 0xF3, 0xF7, 0x02, 0x01, 0xF8, 0xF1, 0x03,
  0xFD, 0x04, 0x0F, 0xF3, 0xEF, 0x0A, 0xF2, 0xF9, 0x02, 0x10,
  0x11, 0xE7, 0xFF, 0x08, 0xF1, 0xF5, 0xEA, 0x03, 0x05, 0xF8,
  0xEE, 0x08, 0xEF, 0xFE, 0xED, 0xF1, 0x00, 0xF9, 0xFB, 0xF8,
  0xED, 0x03, 0xF2, 0xFF, 0xF0, 0x0F, 0x03, 0xF8, 0x0C, 0xF0,
  0xF7, 0xF3, 0x08, 0x04, 0xFB, 0x00, 0x02, 0x0A, 0x10, 0xEE,
  0xEA, 0x0D, 0xFE, 0xF7, 0x0F, 0xF9, 0xFD, 0xF1, 0xF6, 0xED,
  0xEA, 0x00, 0x07, 0x05, 0xF0, 0xF2, 0x09, 0xFA, 0x09, 0xED,
  0xE6, 0x13, 0xF4, 0x03, 0xFF, 0x04, 0xF6, 0xF6, 0x0A, 0xF1,
  0xF0, 0x03, 0xEA, 0xFA, 0xED, 0xF1, 0xF3, 0xF8, 0x08, 0x0E,
  0x07, 0xFA, 0xF9, 0xF4, 0x0E, 0xFC, 0x04, 0x10, 0x0B, 0xEC,
  0xFA, 0xE9, 0x03, 0xFD, 0x06, 0xEB, 0xF4, 0xF5, 0xFE, 0xF1,
  0xFB, 0xEB, 0x05, 0x01, 0x0B, 0xFD, 0xEF, 0xE9, 0xFC, 0xFB,
  0x0E, 0xF1, 0xFA, 0x06, 0xE8, 0x0C, 0x05, 0xF9, 0x0E, 0x11,
  0x0C, 0x09, 0xF6, 0xED, 0x03, 0x01, 0x12, 0xF9, 0xFA, 0xF4,
  0xF6, 0x09, 0xF1, 0x07, 0x07, 0x06, 0xFE, 0xF0, 0x0B, 0xF7,
  0xFB, 0xF9, 0x0A, 0x06, 0xF2, 0xF2, 0xFB, 0xE7, 0xEC, 0xFE,
  0xE7, 0xE9, 0xFB, 0xFF, 0xEE, 0xFB, 0x01, 0x09, 0x05, 0xED,
  0xF6, 0xFA, 0x08, 0xFE, 0xE9, 0xEF, 0x10, 0xEE, 0xF6, 0xEE,
  0x02, 0xEC, 0x0C, 0xEB, 0x09, 0xF2, 0x0D, 0x00, 0xE9, 0x01,
  0x0C, 0x10, 0xEC, 0xF5, 0xED, 0x03, 0x08, 0x0F, 0xF1, 0x0B,
  0x0E, 0x05, 0x08, 0x01, 0xE9, 0xE9, 0xF8, 0x0D, 0xF7, 0xF1,
  0xEA, 0xF6, 0x0D, 0xF8, 0xED, 0xED, 0x08, 0xF6, 0x00, 0xF4,
  0xF2, 0xEB, 0x0F, 0x06, 0x09, 0xF5, 0x0C, 0xFD, 0xF2, 0xF6,
  0xEF, 0x00, 0xEC, 0x0E, 0xF4, 0xF2, 0xED, 0xFF, 0x06, 0xF3,
  0x03, 0xF8, 0xED, 0xF1, 0x0F, 0xEC, 0xF2, 0xF1, 0x03, 0x04,
  0xFD, 0xF3, 0xFB, 0xEC, 0xEB, 0x09, 0xF7, 0x00, 0x0A, 0xEA,
  0xEB, 0xE9, 0xFA, 0xFA, 0xEB, 0xF4, 0xEC, 0xEC, 0x0A, 0x0D,
  0xF1, 0x06, 0xF1, 0x05, 0xF1, 0x02, 0x12, 0xF0, 0xF7, 0xF4,
  0xFC, 0xF8, 0xFF, 0xE6, 0xE8, 0xF9, 0xE6, 0x02, 0xFA, 0x0B,
  0x0B, 0x11, 0x07, 0xFA, 0xF4, 0xFE, 0x02, 0xEA, 0xF5, 0x05,
  0x08, 0xFF, 0x0E, 0x02, 0xF2, 0xED, 0x00, 0x09, 0x0B, 0x03,
  0xFD, 0x0C, 0xEB, 0xED, 0xF1, 0xEC, 0xF3, 0xFD, 0xF1, 0x04,
  0x0B, 0xEC, 0xEC, 0x0E, 0x06, 0x0D, 0xF6, 0xFA, 0xED, 0xE7,
  0xF5, 0xFB, 0xF0, 0xF4, 0x0B, 0xF0, 0xEB, 0x02, 0xF1, 0x0E,
  0xEE, 0xE9, 0xFE, 0x13, 0xEB, 0x0E, 0x06, 0x0E, 0xEB, 0x0A,
  0x06, 0x0C, 0x00, 0xFB, 0x08, 0xFA, 0xF1, 0xF3, 0xEA, 0x0D,
  0xEA, 0xF7, 0x08, 0xEE, 0xE8, 0xF1, 0xFD, 0xFC, 0xEC, 0xEC,
  0x0A, 0xFB, 0xEE, 0x03, 0xF1, 0xF0, 0xFA, 0xFD, 0xF9, 0xFF,
  0xF5, 0x00, 0x0B, 0xF9, 0x01, 0x10, 0xF5, 0xF5, 0xF5, 0xF5,
  0xEE, 0x02, 0x0B, 0xFB, 0x0C, 0x0C, 0xE8, 0xFD, 0x11, 0x0D,
  0x0A, 0xFF, 0xF3, 0x04, 0x06, 0xF1, 0x12, 0xE8, 0xF6, 0x11,
  0xFE, 0xEB, 0xFC, 0xF0, 0xFA, 0xF4, 0xF2, 0x0A, 0x10, 0x00,
  0xF8, 0xEB, 0x0A, 0x07, 0xFB, 0x0B, 0x02, 0x12, 0xED, 0xED,
  0xF7, 0xF0, 0x07, 0xF5, 0x10, 0x0A, 0xEB, 0xF8, 0xEF, 0x02,
  0x00, 0x06, 0xF6, 0x07, 0xFF, 0xF2, 0x0E, 0x01, 0xF2, 0xFA,
  0x07, 0xF8, 0x00, 0x04, 0x10, 0xE8, 0xEB, 0xFB, 0xEB, 0xF5,
  0xF4, 0xEC, 0x0C, 0xFA, 0x01, 0xF5, 0x0F, 0x0F, 0xF8, 0xF8,
  0xEF, 0x02, 0x0E, 0xFD, 0xE9, 0x13, 0x0A, 0xF1, 0xF4, 0x06,
  0xEB, 0x02, 0x0C, 0x01, 0xF1, 0xEC, 0xFD, 0xF1, 0xF5, 0x10,
  0xFB, 0xED, 0x00, 0xEC, 0x12, 0x04, 0xF8, 0x0B, 0xEC, 0xEC,
  0xF8, 0xF5, 0x09, 0x0F, 0x06, 0xFE, 0x01, 0xF7, 0x11, 0x0E,
  0xED, 0xEA, 0xF1, 0x02, 0x0E, 0x03, 0x09, 0xF3, 0xEF, 0x02,
  0x09, 0xF8, 0xFF, 0x06, 0xF7, 0xFA, 0x07, 0x09, 0x09, 0xF5,
  0x0D, 0x00, 0x05, 0x02, 0x0F, 0xEE, 0xFA, 0x07, 0x14, 0xF4,
  0xF7, 0xF7, 0xF0, 0xF5, 0x09, 0xFD, 0xF6, 0xF2, 0x07, 0x06,
  0x06, 0xE7, 0x07, 0x03, 0x06, 0xF2, 0xF1, 0xF9, 0x10, 0xF7,
  0x0C, 0x09, 0x10, 0x06, 0x05, 0x04, 0x05, 0xFF, 0x00, 0x05,
  0xFD, 0x05, 0x19, 0xF6, 0xFF, 0x0F, 0xFD, 0xE3, 0x09, 0x02,
  0xDD, 0xFB, 0x0C, 0xF2, 0xF2, 0xFE, 0xF8, 0xF7, 0x1D, 0xF8,
  0xEF, 0x03, 0xEA, 0xFC, 0x0F, 0xDE, 0xE5, 0xE4, 0x02, 0x13,
  0x01, 0xE6, 0x01, 0xEC, 0xFC, 0x04, 0x00, 0x03, 0xFD, 0x05,
  0xE1, 0xF6, 0x11, 0xDD, 0xE7, 0x02, 0xF7, 0x04, 0x17, 0xE6,
  0xF8, 0x02, 0xED, 0x11, 0x1C, 0xF6, 0xF4, 0x08, 0x03, 0xF5,
  0xF7, 0xEC, 0x16, 0x18, 0x12, 0xF6, 0x0A, 0x04, 0x1D, 0x06,
  0x01, 0xFF, 0x11, 0xF5, 0x19, 0xF6, 0xEE, 0xFD, 0x1E, 0x06,
  0xFF, 0xF8, 0xEB, 0x15, 0xFE, 0x00, 0xF1, 0x13, 0x04, 0x03,
  0x20, 0xF9, 0x03, 0xFA, 0xFA, 0x0E, 0x0B, 0xEE, 0xE9, 0x06,
  0xFD, 0x0D, 0x17, 0xFF, 0xF7, 0x01, 0x02, 0xF6, 0xFA, 0x09,
  0x1E, 0xFC, 0x0B, 0xFE, 0xFA, 0x16, 0x1B, 0x11, 0x08, 0xF9,
  0x04, 0xF5, 0x1F, 0x1C, 0x04, 0x05, 0xEE, 0x02, 0x17, 0xFD,
  0x1A, 0x30, 0xF2, 0xFD, 0x04, 0xFF, 0x0C, 0x03, 0x10, 0x22,
  0x00, 0x1A, 0xF5, 0x0F, 0x1D, 0xFE, 0xFF, 0x03, 0xF3, 0x07,
  0x07, 0xEF, 0x0D, 0x18, 0x05, 0xF5, 0x03, 0xFD, 0x13, 0x0C,
  0xFB, 0x15, 0x17, 0x1D, 0xF7, 0x19, 0x18, 0xFA, 0x10, 0x03,
  0x06, 0x0B, 0x03, 0xF0, 0x08, 0xFB, 0x1F, 0x06, 0x15, 0x11,
  0x1A, 0xEA, 0xFD, 0xF9, 0x01, 0x06, 0x12, 0xE7, 0xF2, 0x02,
  0x0B, 0xF8, 0xF3, 0xFF, 0xEC, 0x0A, 0x04, 0x02, 0x0B, 0x02,
  0x06, 0xF5, 0xE5, 0x0A, 0xEE, 0xE3, 0x07, 0xFC, 0x0A, 0x17,
  0xF7, 0x0A, 0x04, 0xFF, 0x01, 0x16, 0xF0, 0xF9, 0x18, 0x03,
  0x00, 0xFC, 0xE7, 0x05, 0x14, 0x10, 0x0E, 0x0C, 0x0B, 0x24,
  0x0B, 0x18, 0x1D, 0xFE, 0x0C, 0xFF, 0x09, 0x07, 0x0F, 0x05,
  0xF5, 0x0F, 0x13, 0x14, 0x0F, 0xF6, 0xF8, 0x1A, 0x24, 0x13,
  0x0C, 0xFA, 0x03, 0x12, 0x01, 0x10, 0xFC, 0x16, 0x04, 0x03,
  0x1A, 0x11, 0x17, 0xEE, 0x18, 0x1C, 0x06, 0x17, 0x0F, 0xFC,
  0x0C, 0x0A, 0x10, 0x07, 0xFB, 0x27, 0xF9, 0x0C, 0x02, 0xFA,
  0xF0, 0x33, 0xF6, 0x00, 0x00, 0x0B, 0xE8, 0x1E, 0xDF, 0xF8,
  0x08, 0x13, 0x05, 0x26, 0xD1, 0x15, 0x0E, 0x10, 0xF3, 0x16,
  0x02, 0x06, 0x0F, 0xF3, 0x02, 0xFD, 0x0A, 0x16, 0x28, 0x09,
  0xFC, 0x02, 0x06, 0xFC, 0x19, 0x0B, 0x1B, 0xFA, 0x0D, 0x0B,
  0x1A, 0xFE, 0x01, 0x10, 0x0A, 0x05, 0x18, 0xF7, 0xF5, 0x12,
  0x09, 0x11, 0x0E, 0x12, 0x12, 0x14, 0x08, 0x0F, 0xFB, 0x05,
  0xFF, 0xFF, 0x0B, 0x1D, 0x02, 0x15, 0x18, 0xEB, 0xF9, 0x04,
  0x26, 0xF7, 0x03, 0x14, 0xDD, 0x11, 0x1B, 0xF8, 0x0C, 0x0A,
  0xDE, 0xFA, 0x28, 0xFE, 0x05, 0x14, 0xD3, 0xF6, 0xFE, 0x0A,
  0xF0, 0x28, 0xD6, 0xFB, 0x09, 0x0D, 0x0F, 0x16, 0xCE, 0xFD,
  0xE8, 0x16, 0xF9, 0x2A, 0xEA, 0xF1, 0x0B, 0xF7, 0x16, 0x1D,
  0xEC, 0x13, 0xF4, 0xE7, 0x00, 0x12, 0x19, 0x08, 0x0E, 0xF9,
  0x02, 0x23, 0xF5, 0x11, 0xFE, 0xFE, 0xEC, 0xFF, 0x0F, 0x25,
  0x02, 0x0A, 0x16, 0x1B, 0x0A, 0x09, 0x06, 0xFF, 0x01, 0x00,
  0x15, 0x15, 0xFF, 0xF1, 0x09, 0xFE, 0xF6, 0x14, 0x07, 0x0C,
  0x13, 0xEF, 0xF3, 0x1E, 0x01, 0xF2, 0x11, 0xC7, 0x11, 0x12,
  0x0A, 0xDE, 0xEE, 0xE4, 0x08, 0x08, 0xFB, 0xE7, 0xF5, 0x00,
  0xD5, 0x0F, 0x14, 0x1E, 0xFA, 0xF4, 0xD0, 0xFD, 0xFE, 0x02,
  0xFB, 0x1E, 0xF7, 0x0F, 0x05, 0xF0, 0x13, 0x28, 0x09, 0x15,
  0x03, 0xED, 0xFE, 0x2A, 0xFD, 0x04, 0xFE, 0xF7, 0x06, 0x08,
  0x0B, 0xF2, 0xF8, 0xF8, 0xFE, 0x18, 0x02, 0x0D, 0xFF, 0xF9,
  0x0A, 0xEB, 0x0F, 0x1C, 0x17, 0x19, 0x03, 0xFE, 0x13, 0x09,
  0x11, 0x0D, 0x1C, 0x19, 0x06, 0x16, 0x14, 0x0D, 0x04, 0xFF,
  0x18, 0x12, 0x08, 0x0A, 0xFF, 0xE2, 0x20, 0xFF, 0xF4, 0xE7,
  0xF6, 0xA8, 0x09, 0xF3, 0xFB, 0xF3, 0x07, 0xE5, 0xD6, 0xEF,
  0xF5, 0xFA, 0x05, 0x17, 0xD3, 0x0D, 0x07, 0x04, 0x1B, 0x03,
  0xD5, 0xFC, 0x02, 0x0C, 0xFE, 0x24, 0xFE, 0x14, 0xFD, 0xF3,
  0x02, 0x1D, 0x17, 0xFE, 0x05, 0xFA, 0xF9, 0x1B, 0x2F, 0xF6,
  0xFD, 0x07, 0x01, 0x2A, 0x14, 0xFF, 0xFC, 0x05, 0xE9, 0x04,
  0x1E, 0x0D, 0x08, 0x08, 0x10, 0xF4, 0x15, 0x0B, 0x14, 0x0E,
  0x0E, 0x13, 0x25, 0x00, 0xFC, 0xFC, 0xFA, 0x02, 0x1D, 0xFB,
  0x00, 0x10, 0x02, 0x0E, 0x14, 0x04, 0x0C, 0x0B, 0x12, 0xF0,
  0x19, 0x05, 0x0D, 0x10, 0xF0, 0x02, 0x03, 0xF3, 0xF8, 0x0E,
  0x10, 0x48, 0xC9, 0x09, 0x04, 0x09, 0x1E, 0x20, 0xC8, 0x07,
  0xFF, 0x28, 0x0C, 0xDF, 0x0C, 0x1C, 0x10, 0x1B, 0x02, 0x17,
  0x29, 0x0F, 0xF3, 0xFB, 0x10, 0x19, 0x29, 0xF2, 0xEC, 0x0C,
  0xFE, 0x13, 0x3A, 0xFD, 0x04, 0x20, 0x0D, 0x28, 0x3C, 0x04,
  0x0D, 0x23, 0x05, 0x11, 0x12, 0x16, 0x21, 0xFC, 0x24, 0x19,
  0x1B, 0x07, 0xFF, 0x10, 0x07, 0x02, 0x08, 0xFB, 0x08, 0xFE,
  0xFC, 0xFD, 0x11, 0xFC, 0xEC, 0x0D, 0x03, 0x0A, 0x03, 0x1B,
  0xFB, 0x26, 0x0C, 0x32, 0x1B, 0x02, 0x02, 0x16, 0xF4, 0x5D,
  0xD3, 0xF5, 0xF2, 0x13, 0x19, 0x6F, 0xCC, 0x17, 0xFB, 0x26,
  0xFE, 0x08, 0xFC, 0x03, 0x0D, 0xEA, 0x22, 0x11, 0x21, 0xFD,
  0xFA, 0xE7, 0x0F, 0x11, 0x22, 0xEA, 0xFF, 0xFB, 0xEC, 0x13,
  0x32, 0xEA, 0x04, 0x1A, 0xF3, 0x09, 0x35, 0xF3, 0xFA, 0x37,
  0x0E, 0x26, 0x14, 0xEE, 0xF1, 0x38, 0xF7, 0xFE, 0x09, 0x06,
  0x21, 0x14, 0x22, 0xFD, 0x1B, 0xF0, 0x0F, 0xFC, 0xF6, 0x02,
  0x03, 0xFD, 0x01, 0xEB, 0xF3, 0xF8, 0xE9, 0x09, 0xF7, 0x1F,
  0x07, 0x18, 0xE8, 0x05, 0xE5, 0x09, 0xF2, 0x41, 0xF6, 0xEA,
  0xD4, 0x09, 0x0F, 0x76, 0xE3, 0x1C, 0xD9, 0x08, 0xF3, 0x7F,
  0x06, 0x27, 0xE6, 0xF4, 0x1B, 0x23, 0x0E, 0x23, 0xFC, 0xF7,
  0x15, 0x32, 0xF1, 0x15, 0x08, 0xEE, 0xEE, 0x00, 0xE5, 0xF8,
  0xFC, 0x06, 0x00, 0xF0, 0x14, 0xFD, 0xF9, 0x22, 0xE9, 0x06,
  0x22, 0xF6, 0xF9, 0x27, 0xF6, 0x07, 0x06, 0x07, 0xFC, 0x0C,
  0x03, 0x0D, 0x1B, 0x08, 0x11, 0xFD, 0x08, 0xF9, 0x17, 0xF6,
  0x0A, 0x06, 0xFF, 0x0E, 0xF0, 0xFC, 0x0D, 0x17, 0xEE, 0xFB,
  0xE0, 0xF4, 0xF9, 0x0A, 0x0B, 0x1A, 0xEA, 0xFB, 0xEE, 0x07,
  0x07, 0x26, 0xC2, 0x00, 0xE2, 0xF8, 0xF5, 0x57, 0xDE, 0xFB,
  0xD7, 0x07, 0x09, 0x6E, 0xE1, 0x0D, 0xF0, 0xF2, 0x0A, 0x33,
  0xDF, 0x01, 0x18, 0xDB, 0x17, 0x17, 0xDE, 0x03, 0x0F, 0xD4,
  0xF3, 0xE5, 0xF9, 0xE8, 0x0E, 0x0C, 0xEB, 0xDA, 0xF4, 0x02,
  0x17, 0x1F, 0xEF, 0x04, 0x1B, 0x10, 0x17, 0x2C, 0x03, 0x00,
  0x10, 0x14, 0xF4, 0x03, 0x09, 0xF2, 0x09, 0x0C, 0x19, 0xFE,
  0x0A, 0xFB, 0x01, 0x0D, 0xFF, 0x11, 0xDD, 0xF5, 0x0F, 0xE2,
  0xEF, 0x02, 0xF8, 0xFE, 0x15, 0x11, 0xDA, 0xF8, 0x0D, 0x0C,
  0xF7, 0x00, 0x11, 0x09, 0xFA, 0x26, 0x05, 0xE6, 0xF6, 0xFA,
  0x08, 0x21, 0x00, 0x04, 0xF9, 0xE7, 0x12, 0x1F, 0x06, 0x0B,
  0x14, 0xE6, 0xFA, 0x20, 0xF1, 0xFB, 0x17, 0xD8, 0xF3, 0xEE,
  0xEF, 0xF7, 0x2C, 0xEE, 0x0B, 0xDD, 0x06, 0xF1, 0x11, 0xE8,
  0xF6, 0xEF, 0xFF, 0x0A, 0x1C, 0x03, 0x12, 0x01, 0x04, 0xEA,
  0x1C, 0x0D, 0xFA, 0xF9, 0xF9, 0xFD, 0x11, 0x15, 0x07, 0x0A,
  0x00, 0xEF, 0x06, 0xF8, 0x02, 0x19, 0x14, 0x14, 0xFF, 0x14,
  0xFE, 0x0E, 0x16, 0xF6, 0x06, 0xEE, 0x04, 0x1B, 0x05, 0x04,
  0xF5, 0xE4, 0xF3, 0xF6, 0x17, 0xF7, 0xF6, 0xE9, 0xF4, 0x27,
  0xFE, 0xFC, 0x04, 0xE8, 0x05, 0x17, 0x05, 0x01, 0x0E, 0xE3,
  0x02, 0x17, 0xF3, 0x0E, 0x22, 0xDE, 0xEC, 0x13, 0xF9, 0x08,
  0x23, 0xC5, 0x0C, 0x0F, 0x13, 0x06, 0x2B, 0xCC, 0xF1, 0x06,
  0xF9, 0x08, 0x03, 0xE3, 0xEA, 0xF9, 0x0A, 0xEB, 0x0E, 0xFE,
  0x06, 0xFB, 0xFD, 0xFE, 0x05, 0xF7, 0xED, 0xFE, 0x15, 0xF6,
  0xF8, 0x09, 0xEA, 0xFD, 0x07, 0x09, 0xF8, 0x13, 0x11, 0xF6,
  0x13, 0x0D, 0x14, 0x15, 0xEB, 0x0B, 0x0F, 0xE6, 0x1E, 0x02,
  0xDA, 0x16, 0xF7, 0xF9, 0xF9, 0xFF, 0xF2, 0x18, 0x0C, 0x00,
  0x0A, 0x13, 0xF7, 0xEF, 0xE2, 0xFE, 0x16, 0xEF, 0xEA, 0xED,
  0xEF, 0xF9, 0x1F, 0x07, 0x04, 0x00, 0xF3, 0xEC, 0x1A, 0x0F,
  0xFF, 0xF9, 0xE2, 0x07, 0x09, 0xF9, 0xFE, 0x0F, 0xE7, 0x08,
  0x0D, 0xF2, 0x15, 0x1A, 0xD8, 0xFB, 0xEB, 0x14, 0x0C, 0x08,
  0xE3, 0xF6, 0x15, 0x1C, 0xE8, 0x07, 0xFD, 0xE8, 0x0D, 0x0C,
  0xF9, 0x0F, 0x0D, 0xFB, 0xF1, 0x13, 0xE9, 0x05, 0xFA, 0x0B,
  0x03, 0xFE, 0x1B, 0x12, 0xF7, 0xF6, 0x03, 0x0E, 0x13, 0x15,
  0x12, 0x07, 0xFE, 0x02, 0xF7, 0x16, 0x12, 0x12, 0x11, 0xFB,
  0x24, 0x04, 0x09, 0x2D, 0x25, 0x0A, 0x26, 0x0A, 0x01, 0x26,
  0x1B, 0x23, 0x12, 0x02, 0x00, 0x21, 0x15, 0x25, 0x12, 0x09,
  0x13, 0x1E, 0x13, 0x28, 0x1A, 0x04, 0x18, 0x21, 0xFC, 0x17,
  0x02, 0x16, 0x1B, 0x1C, 0x11, 0x20, 0x17, 0x0A, 0x0E, 0x16,
  0x00, 0x09, 0x14, 0x19, 0x0D, 0xFB, 0x01, 0x1A, 0x13, 0x09,
  0x1C, 0xFA, 0x18, 0xFF, 0x10, 0xFC, 0x1D, 0x06, 0xF7, 0x17,
  0x08, 0x1E, 0xFC, 0x01, 0x09, 0x10, 0xF1, 0xFB, 0x19, 0x0A,
  0x09, 0x0E, 0x01, 0x12, 0x1E, 0xE7, 0x09, 0x14, 0xF9, 0x17,
  0x11, 0x0C, 0x0B, 0xF4, 0x0F, 0x0A, 0x0F, 0x05, 0xF8, 0x01,
  0x0F, 0x12, 0x0E, 0xFA, 0x08, 0x07, 0x1A, 0xF6, 0xF2, 0x02,
  0x1F, 0x06, 0xFA, 0x05, 0xF7, 0x01, 0x1F, 0x04, 0xFB, 0x12,
  0xFF, 0x15, 0x06, 0x08, 0x16, 0x17, 0x08, 0x15, 0x0B, 0x1B,
  0x25, 0x22, 0x17, 0x18, 0x0A, 0x15, 0x01, 0x27, 0x07, 0x1A,
  0x19, 0x04, 0x12, 0xF8, 0x05, 0x21, 0x06, 0x16, 0x17, 0x10,
  0x0A, 0x0A, 0x19, 0x08, 0x17, 0x08, 0x08, 0xF4, 0x15, 0xF6,
  0x17, 0x03, 0x10, 0xF6, 0x07, 0x08, 0xEF, 0x12, 0x05, 0xEE,
  0x0B, 0x11, 0x0A, 0xFC, 0x04, 0xED, 0x03, 0xF5, 0x08, 0x13,
  0x0E, 0xF3, 0xFA, 0x0D, 0x06, 0x01, 0x21, 0xFF, 0xF3, 0xFF,
  0x0D, 0x17, 0x11, 0x03, 0xF9, 0x11, 0xF3, 0xFB, 0x07, 0x1A,
  0xEF, 0x02, 0xF3, 0x27, 0x03, 0x08, 0x0F, 0xF8, 0xFC, 0x0E,
  0x15, 0x03, 0x07, 0x10, 0x11, 0x21, 0x24, 0x0D, 0x04, 0x00,
  0x0B, 0x0F, 0x1F, 0x13, 0xF9, 0xF3, 0x13, 0xF9, 0x0E, 0xFD,
  0x02, 0xF7, 0x10, 0x10, 0x03, 0x0E, 0x1C, 0x08, 0xFF, 0x15,
  0x0F, 0x06, 0x04, 0xFD, 0x09, 0x1C, 0x10, 0x00, 0xFB, 0xF9,
  0x08, 0xF4, 0x07, 0xFE, 0xE8, 0x0D, 0xE6, 0xFC, 0x0D, 0xF2,
  0xE2, 0x00, 0x03, 0x02, 0xFF, 0x09, 0x02, 0xEA, 0x08, 0xFB,
  0xF8, 0x06, 0xF6, 0x00, 0x04, 0x02, 0xFC, 0x0E, 0xFA, 0x13,
  0xF5, 0x1E, 0xFF, 0x19, 0xE2, 0xFB, 0x04, 0x1B, 0x1B, 0x08,
  0xEB, 0x02, 0x0B, 0x13, 0x2D, 0x05, 0xE6, 0xF9, 0x09, 0x08,
  0x37, 0x0C, 0x03, 0xE7, 0x01, 0x04, 0x1C, 0x0E, 0xF3, 0xED,
  0xF1, 0xF4, 0x25, 0x14, 0x1A, 0xF8, 0xF3, 0x13, 0x12, 0x06,
  0x0E, 0x14, 0x01, 0x0E, 0x01, 0x05, 0x1B, 0xF5, 0x13, 0xF4,
  0x1C, 0xEA, 0x07, 0xEA, 0xEA, 0x01, 0xF8, 0xF6, 0x03, 0x0C,
  0xEC, 0xFB, 0x0C, 0xFB, 0xEF, 0xEE, 0xF5, 0x19, 0x11, 0x01,
  0xF2, 0x08, 0xEC, 0x23, 0xF2, 0x00, 0xFA, 0x15, 0xF6, 0x21,
  0xE9, 0xE9, 0xFE, 0x07, 0xE9, 0xF6, 0xF1, 0x09, 0x0F, 0xF4,
  0xF5, 0x1F, 0x19, 0xED, 0x0E, 0xF8, 0xFA, 0x18, 0x28, 0xEC,
  0xF3, 0xF2, 0xFD, 0x05, 0x1F, 0xFA, 0x03, 0x0E, 0xF9, 0xD7,
  0x1D, 0xF0, 0x0D, 0xFC, 0xE8, 0xF3, 0x1D, 0xF3, 0xFF, 0x19,
  0x0C, 0xFD, 0x20, 0xF3, 0xFB, 0xF6, 0x10, 0xF4, 0x21, 0x17,
  0x01, 0x20, 0x1D, 0x13, 0xF9, 0xDA, 0x09, 0xFA, 0xE6, 0xFB,
  0x10, 0xEA, 0xDE, 0xE5, 0xFE, 0x09, 0xFF, 0xE6, 0x05, 0xEF,
  0xEF, 0x06, 0x11, 0xEA, 0x04, 0xFA, 0xF9, 0x11, 0x12, 0x05,
  0x08, 0xEC, 0xF5, 0x0E, 0x08, 0x0C, 0x19, 0xF9, 0x0E, 0xFA,
  0xF2, 0xF2, 0x1A, 0xFE, 0xFD, 0xEC, 0x08, 0x06, 0x10, 0x10,
  0xF4, 0x02, 0x35, 0xED, 0xF2, 0x0A, 0xF2, 0x10, 0x1E, 0x03,
  0xFF, 0x25, 0xFC, 0xF6, 0x0C, 0xE2, 0xF2, 0x04, 0xF2, 0xF7,
  0x09, 0x02, 0x16, 0x1E, 0x13, 0x09, 0xF3, 0x0D, 0x07, 0x17,
  0x23, 0xFC, 0x14, 0x20, 0x10, 0x1B, 0x0E, 0x04, 0xFD, 0xEB,
  0x18, 0xEC, 0xFC, 0x18, 0x0E, 0xF1, 0xF1, 0xF0, 0x07, 0xFC,
  0x35, 0x02, 0x20, 0x08, 0xEE, 0x05, 0x21, 0xEC, 0x09, 0x07,
  0xEE, 0x06, 0x20, 0xFF, 0x04, 0x0B, 0xEE, 0xED, 0xFC, 0x18,
  0x13, 0x2B, 0x12, 0xD9, 0xE5, 0x07, 0x10, 0x06, 0x1A, 0xE0,
  0x07, 0x05, 0x19, 0x09, 0x06, 0xE1, 0x11, 0xE6, 0xFD, 0x2A,
  0xE8, 0xFC, 0x03, 0x05, 0xF7, 0x14, 0x02, 0x0A, 0xF1, 0x06,
  0x00, 0x11, 0xE3, 0xF9, 0xFE, 0x05, 0x0C, 0x10, 0xEE, 0x02,
  0x24, 0x07, 0x17, 0x06, 0x0C, 0x0D, 0x10, 0x13, 0x1C, 0x06,
  0x1B, 0x09, 0x0A, 0x06, 0x12, 0x0D, 0xFE, 0xFD, 0xF3, 0xE6,
  0x28, 0xF2, 0xFB, 0x0F, 0x0D, 0xE9, 0x2B, 0x02, 0xF7, 0xF2,
  0x23, 0xEC, 0x00, 0x07, 0x02, 0x07, 0xFE, 0xF1, 0x04, 0x20,
  0x10, 0xEE, 0xE8, 0x0B, 0xFC, 0x05, 0x08, 0xCE, 0xE6, 0x17,
  0x0F, 0x0A, 0x04, 0xBB, 0x09, 0x16, 0x26, 0x16, 0x04, 0x04,
  0x0E, 0x10, 0x07, 0x27, 0xEC, 0x24, 0xF0, 0x0B, 0x05, 0x1A,
  0xFC, 0x15, 0xFB, 0xE9, 0x08, 0x10, 0xEF, 0x15, 0x11, 0x0A,
  0x0A, 0x0E, 0xF2, 0xE9, 0x0D, 0x00, 0x15, 0x0F, 0x16, 0x02,
  0x26, 0x19, 0x2D, 0x0D, 0x2A, 0x18, 0x05, 0xFA, 0x1A, 0x08,
  0xF8, 0xFC, 0x01, 0xFD, 0x07, 0xFB, 0x0E, 0x0E, 0xF2, 0x12,
  0x18, 0x06, 0x04, 0xE8, 0xEF, 0x10, 0xFE, 0x1D, 0xFF, 0xFD,
  0xF1, 0xFF, 0xFB, 0x2B, 0x05, 0x23, 0xF4, 0x22, 0x10, 0x0F,
  0x20, 0x17, 0xF6, 0x24, 0x14, 0xF5, 0x23, 0x17, 0x18, 0x16,
  0x27, 0xE8, 0xFF, 0x24, 0xF9, 0xF7, 0x00, 0x05, 0x09, 0xF4,
  0x11, 0x0F, 0x0F, 0x0E, 0x09, 0xF8, 0xFB, 0xF2, 0x14, 0x19,
  0x05, 0xF0, 0x11, 0xF4, 0xFC, 0x1D, 0xFA, 0xF7, 0x1C, 0x11,
  0xFF, 0x37, 0x19, 0xFB, 0x0B, 0x26, 0x0C, 0x08, 0x1A, 0x21,
  0x23, 0x01, 0xFE, 0xFB, 0x07, 0x04, 0x19, 0x10, 0xF2, 0x1A,
  0x0A, 0xFB, 0x09, 0x19, 0xFD, 0x14, 0x22, 0x03, 0xEB, 0x0C,
  0x15, 0x17, 0x03, 0x16, 0xF1, 0x17, 0xFE, 0x04, 0x03, 0x2B,
  0xF3, 0x1F, 0x14, 0x11, 0x06, 0x38, 0x0F, 0x01, 0x0D, 0xE5,
  0x05, 0x18, 0x14, 0x13, 0x09, 0xFC, 0x23, 0x04, 0x0B, 0x19,
  0x28, 0x07, 0x14, 0xD9, 0x1A, 0x10, 0x20, 0x1E, 0x00, 0xD4,
  0x25, 0x0B, 0x17, 0x16, 0x01, 0xEE, 0x12, 0x19, 0x12, 0x44,
  0x1C, 0xFC, 0x10, 0x1D, 0x16, 0x32, 0x18, 0xF6, 0x16, 0x14,
  0x25, 0x11, 0x18, 0x13, 0xF5, 0x03, 0x0C, 0x16, 0xFE, 0x0F,
  0xF0, 0xF9, 0xFD, 0x17, 0x12, 0xF2, 0x07, 0x01, 0xFF, 0x09,
  0x0D, 0xEC, 0xF5, 0x1A, 0xFA, 0x01, 0x16, 0x0F, 0xF1, 0x05,
  0xF9, 0xF0, 0x11, 0x0D, 0x11, 0x0C, 0x1C, 0x0A, 0x13, 0x05,
  0x12, 0x11, 0x31, 0xE6, 0x02, 0xF4, 0x22, 0x0F, 0x2E, 0xEB,
  0x10, 0xCE, 0x0D, 0xFC, 0x10, 0x1D, 0x06, 0xCA, 0x28, 0x20,
  0x36, 0x26, 0x0A, 0xEA, 0x17, 0x11, 0x28, 0x2B, 0x16, 0xEF,
  0x12, 0x1B, 0x1B, 0x38, 0xFC, 0x04, 0x16, 0x22, 0x1F, 0x15,
  0x1A, 0x0D, 0x0F, 0x16, 0x23, 0x15, 0x25, 0xFD, 0x15, 0x04,
  0x12, 0xF3, 0x14, 0x13, 0x1C, 0x0B, 0xE3, 0xE6, 0x00, 0xF7,
  0x22, 0xF5, 0xE1, 0xFD, 0xEB, 0x02, 0x09, 0x02, 0x03, 0xDC,
  0xF2, 0x08, 0x1E, 0x09, 0x01, 0xDE, 0x13, 0xFA, 0x1C, 0x08,
  0x24, 0xF7, 0x10, 0xDB, 0x17, 0x1A, 0x13, 0xEE, 0xFE, 0xD5,
  0x0E, 0x22, 0x1B, 0xF6, 0x06, 0xE6, 0x20, 0x04, 0x05, 0x19,
  0x19, 0xE3, 0x0F, 0x23, 0x29, 0x30, 0x13, 0x09, 0x12, 0x06,
  0x0E, 0x10, 0x08, 0x0A, 0x0B, 0x08, 0x1F, 0x06, 0x1E, 0x0E,
  0x23, 0x08, 0x10, 0x1C, 0x0A, 0xFE, 0x16, 0x08, 0xFF, 0x1C,
  0xFB, 0xFF, 0x10, 0x0E, 0x16, 0x07, 0x01, 0xF3, 0x09, 0xF4,
  0xF4, 0xED, 0x05, 0x13, 0x03, 0xFF, 0xF3, 0xDB, 0xEB, 0x17,
  0x04, 0x04, 0x02, 0xCB, 0x01, 0xE5, 0x0A, 0xFC, 0xF3, 0xCE,
  0xF6, 0xF4, 0xF9, 0xF3, 0xFB, 0xD2, 0xF2, 0xE8, 0xFD, 0x0F,
  0x18, 0xE2, 0xFD, 0x05, 0x0F, 0x12, 0xEF, 0xEC, 0xF7, 0x03,
  0x1C, 0x17, 0xF5, 0xE4, 0xEF, 0xFF, 0xFA, 0x0B, 0xEB, 0xFB,
  0x18, 0x05, 0x13, 0x0F, 0x05, 0xFB, 0x0F, 0x16, 0x08, 0x0D,
  0x1A, 0x15, 0x17, 0x14, 0x14, 0x10, 0x19, 0xFE, 0x13, 0x0E,
  0x14, 0xFE, 0x1E, 0x05, 0x03, 0x04, 0x0B, 0x04, 0x11, 0x0C,
  0xF5, 0x0C, 0xF9, 0xE7, 0x01, 0x0B, 0xE2, 0x0A, 0xF3, 0xC6,
  0xFA, 0x09, 0xD8, 0x0A, 0xE2, 0xCF, 0xF0, 0xF5, 0xFA, 0xEC,
  0xF4, 0xDE, 0xE9, 0x05, 0xEB, 0xD2, 0xED, 0xF3, 0xED, 0xF0,
  0x08, 0xEC, 0x01, 0x0E, 0xD3, 0x05, 0xF5, 0xF2, 0xEF, 0xEE,
  0xDC, 0xFE, 0xE6, 0xE6, 0xEF, 0xF1, 0xD2, 0x05, 0xE8, 0xFD,
  0xE6, 0xEA, 0xE3, 0xFA, 0xFD, 0xFB, 0xF5, 0xFD, 0xF8, 0x17,
  0x07, 0xF4, 0xF9, 0xF6, 0xF7, 0xF9, 0x12, 0xF8, 0x0D, 0xFA,
  0xF7, 0x1D, 0x04, 0x15, 0x13, 0x16, 0x19, 0x18, 0x10, 0xF2,
  0x02, 0x1F, 0x15, 0x18, 0x08, 0x1A, 0x1C, 0x1B, 0x16, 0x16,
  0x07, 0xFE, 0x0B, 0x0D, 0x20, 0x0A, 0xF3, 0x1B, 0x21, 0x09,
  0x01, 0x0D, 0x09, 0x0E, 0x1F, 0xF8, 0x15, 0x13, 0xE4, 0x19,
  0x04, 0x17, 0xF7, 0x16, 0x08, 0x0F, 0xFB, 0x05, 0x0C, 0x02,
  0x0C, 0x17, 0x02, 0x01, 0xF9, 0x09, 0x09, 0x22, 0x04, 0x0E,
  0x0B, 0xFD, 0x03, 0x17, 0xFB, 0x0F, 0x05, 0x02, 0x06, 0x06,
  0x17, 0xF5, 0x06, 0xF6, 0xF8, 0x04, 0x0D, 0x03, 0xFF, 0x1D,
  0x01, 0x23, 0x07, 0x12, 0x0E, 0xFA, 0x0E, 0x1B, 0x07, 0x00,
  0x00, 0xFA, 0xF8, 0xFE, 0x10, 0x1E, 0x07, 0x04, 0x1A, 0x04,
  0x0E, 0x0C, 0x0C, 0x16, 0x10, 0x0B, 0x13, 0x18, 0xFF, 0x09,
  0x0A, 0x1B, 0x1C, 0x16, 0xF6, 0xF9, 0x10, 0x03, 0x0A, 0xF4,
  0xFC, 0x0E, 0xEF, 0x19, 0x1F, 0xF7, 0xF7, 0xF6, 0x07, 0x20,
  0x01, 0xF9, 0x0C, 0xF3, 0xEB, 0x12, 0x04, 0x0A, 0xF9, 0x08,
  0xF0, 0x27, 0x25, 0x0C, 0x07, 0xF1, 0x02, 0x28, 0x06, 0x05,
  0x17, 0xF5, 0xF8, 0x1E, 0x15, 0xF4, 0x0A, 0x19, 0xFE, 0x01,
  0x0C, 0xFA, 0x01, 0x09, 0x0B, 0x05, 0x0B, 0x0B, 0xFD, 0x1A,
  0xF6, 0x10, 0x1D, 0xFA, 0x14, 0xFB, 0xED, 0xFD, 0xFB, 0x20,
  0x1B, 0x07, 0xFE, 0x0A, 0xFC, 0x34, 0x0E, 0x20, 0x1C, 0x1F,
  0x15, 0xFE, 0x0C, 0x0B, 0x11, 0x02, 0x00, 0x0C, 0xFC, 0xF7,
  0x00, 0xFE, 0xEA, 0x00, 0xF9, 0x06, 0xF9, 0x24, 0xD3, 0xFD,
  0x00, 0xEA, 0xE4, 0x36, 0xED, 0xF6, 0xEB, 0xFF, 0xEF, 0x48,
  0xEB, 0xFD, 0xE7, 0xD9, 0xF8, 0x5B, 0xE2, 0xE0, 0x04, 0xE0,
  0xF4, 0x36, 0x03, 0xF2, 0xEF, 0xF7, 0xFD, 0x29, 0xFA, 0x15,
  0x18, 0x0C, 0xF1, 0xFC, 0x05, 0x17, 0x14, 0xFA, 0x17, 0x0E,
  0x08, 0x18, 0x14, 0x0F, 0x14, 0xF8, 0x07, 0x0B, 0x03, 0x05,
  0xFA, 0xF8, 0x15, 0x18, 0x1F, 0x09, 0x18, 0xFC, 0x09, 0x2B,
  0x11, 0x28, 0x12, 0x16, 0x0E, 0x12, 0xF8, 0xEF, 0xF0, 0x00,
  0x08, 0x01, 0x1A, 0x01, 0x08, 0x02, 0x0B, 0xF2, 0x07, 0xF1,
  0xFC, 0x1B, 0xD3, 0x10, 0x0F, 0xF0, 0x04, 0x47, 0xB2, 0x0B,
  0xF9, 0xFB, 0xFB, 0x4D, 0xBE, 0x01, 0xED, 0xEC, 0xF9, 0x4E,
  0xAF, 0x0C, 0x00, 0x03, 0x03, 0x45, 0xDD, 0xED, 0xFD, 0xF5,
  0x06, 0x31, 0xF1, 0x00, 0x0B, 0xF6, 0x07, 0x1B, 0x1C, 0xF8,
  0xEA, 0xF2, 0x0B, 0x01, 0x1E, 0x0D, 0x02, 0x00, 0xF5, 0x19,
  0x0A, 0xF4, 0x06, 0x13, 0xFB, 0x1C, 0xFB, 0x0B, 0x04, 0x1D,
  0xEF, 0x0C, 0x0A, 0xEF, 0xF2, 0xFA, 0xF0, 0x0C, 0x17, 0xFA,
  0xF3, 0xE9, 0xE2, 0x08, 0x17, 0xEC, 0x14, 0x02, 0xEE, 0x04,
  0xF9, 0xE7, 0xF9, 0xEF, 0x05, 0x11, 0xDD, 0xEB, 0xF8, 0xD2,
  0xFC, 0x2C, 0xD0, 0x08, 0x01, 0xF7, 0x04, 0x2B, 0xC4, 0xFB,
  0x11, 0x1D, 0xFC, 0x27, 0xB0, 0xFB, 0x02, 0x14, 0x03, 0x33,
  0xED, 0xFB, 0xDC, 0x14, 0x07, 0x28, 0x04, 0xF3, 0xEA, 0xF4,
  0x04, 0x35, 0x11, 0xF2, 0xFD, 0xF2, 0xEC, 0x0F, 0xFE, 0x07,
  0x00, 0x05, 0xF2, 0x1A, 0xF7, 0x13, 0x13, 0x18, 0x18, 0xFF,
  0x18, 0xFF, 0x10, 0xFD, 0xF2, 0xFE, 0x29, 0xF6, 0xF6, 0xED,
  0xE5, 0x11, 0x14, 0xEF, 0x07, 0xFA, 0x07, 0xFD, 0x08, 0x03,
  0xF1, 0xFA, 0xF5, 0x08, 0x05, 0xF6, 0xF7, 0xE7, 0xFC, 0x03,
  0x0C, 0xE6, 0xEC, 0xF5, 0xEC, 0x0F, 0xE1, 0x02, 0xFB, 0x03,
  0x0B, 0x0C, 0xF8, 0x08, 0xFC, 0x14, 0xF6, 0x19, 0xF0, 0xF8,
  0xFE, 0x00, 0x13, 0x2A, 0xD5, 0xEF, 0xFE, 0xE8, 0xE9, 0x14,
  0xE4, 0x07, 0xF4, 0xEF, 0xEB, 0x22, 0xF6, 0xE9, 0xF0, 0x1F,
  0xF8, 0x05, 0x12, 0x08, 0xF7, 0x09, 0xF8, 0x0F, 0x16, 0x14,
  0x08, 0xFD, 0xFF, 0x18, 0x13, 0x19, 0x1E, 0x10, 0x01, 0x0E,
  0xF3, 0x10, 0x0D, 0xFC, 0x0A, 0x0D, 0xF8, 0xF9, 0x05, 0x0C,
  0x03, 0x14, 0x0F, 0x11, 0x15, 0xFC, 0xFE, 0xFA, 0xFC, 0x09,
  0x02, 0x11, 0x03, 0x09, 0x10, 0xFB, 0xF2, 0x2C, 0xFA, 0x16,
  0xF5, 0xEF, 0xFB, 0x25, 0x1B, 0x03, 0xDB, 0xFD, 0xF9, 0x17,
  0x0F, 0x22, 0xEC, 0xFF, 0xF7, 0xE3, 0x00, 0x0A, 0xD8, 0x14,
  0xF2, 0xD8, 0xFA, 0x05, 0xEE, 0x01, 0xF5, 0xEC, 0x00, 0xE7,
  0xEB, 0xE9, 0xF9, 0xFB, 0xFC, 0xF1, 0xF6, 0xFF, 0xFD, 0x06,
  0x05, 0xFD, 0x03, 0xFA, 0x25, 0x19, 0x08, 0x0A, 0x01, 0x0C,
  0xFE, 0x13, 0xFB, 0x0E, 0x0E, 0x0B, 0x03, 0x13, 0xF3, 0x15,
  0x0B, 0x0A, 0x16, 0x26, 0xFE, 0x1B, 0x07, 0x05, 0xF7, 0x0A,
  0xFF, 0x04, 0x14, 0x0D, 0xE8, 0x0D, 0xF9, 0x32, 0x14, 0xF9,
  0xE1, 0x09, 0x0E, 0x36, 0xEE, 0xFF, 0x01, 0x23, 0x02, 0x14,
  0xDF, 0xFB, 0x10, 0x03, 0x06, 0x1B, 0xF0, 0xFF, 0xE8, 0x06,
  0xF7, 0x15, 0xF1, 0x0F, 0xF8, 0xEF, 0xF3, 0x12, 0xF4, 0x09,
  0x09, 0x10, 0xF2, 0xF2, 0x1B, 0x0C, 0xFF, 0x00, 0x05, 0x07,
  0x0B, 0xFE, 0xFE, 0xF9, 0xFC, 0x07, 0x03, 0x06, 0x1F, 0x05,
  0x1C, 0x09, 0x0A, 0x23, 0x17, 0x09, 0xFE, 0x00, 0x08, 0xF2,
  0x0A, 0x12, 0x09, 0x01, 0x0B, 0xFF, 0x13, 0x05, 0xF4, 0x0A,
  0x14, 0x18, 0xF6, 0x0C, 0xF6, 0x11, 0x12, 0x02, 0xE5, 0xE7,
  0x09, 0x4B, 0x05, 0xFD, 0xE0, 0x05, 0x11, 0x30, 0xE3, 0xFE,
  0x06, 0x02, 0x25, 0xFD, 0x15, 0x13, 0x06, 0xF8, 0x06, 0x0F,
  0x02, 0x17, 0xE9, 0x09, 0x21, 0x30, 0xF4, 0x12, 0xFB, 0x19,
  0x03, 0x0A, 0x2B, 0x08, 0xE3, 0x1C, 0xEF, 0x0E, 0x1F, 0x0E,
  0x11, 0x31, 0xFB, 0x1D, 0x1D, 0x08, 0x1B, 0x0D, 0x00, 0x1D,
  0xFC, 0x06, 0x25, 0x27, 0x16, 0x00, 0x1D, 0x0C, 0x18, 0xFF,
  0x13, 0x10, 0x03, 0x0B, 0x05, 0x10, 0xEE, 0x11, 0x2A, 0x07,
  0xF3, 0x10, 0xF3, 0x1A, 0x1A, 0x0E, 0x07, 0x14, 0xF6, 0x22,
  0x0E, 0x0D, 0x01, 0x1A, 0x0A, 0x34, 0xF3, 0xFE, 0xF2, 0x1E,
  0x02, 0x29, 0xEF, 0x13, 0x04, 0x14, 0x1B, 0x0C, 0x0A, 0x26,
  0x0D, 0xED, 0x17, 0x14, 0xFF, 0x0A, 0x1B, 0xF7, 0x1C, 0x14,
  0xFB, 0xFC, 0xFD, 0x0F, 0x15, 0x01, 0x27, 0x08, 0xF4, 0x2F,
  0xF0, 0xFF, 0x2B, 0xF8, 0x07, 0x1F, 0x09, 0x02, 0x02, 0x07,
  0x0E, 0x07, 0x10, 0x08, 0x1A, 0x26, 0x19, 0x22, 0x10, 0xFD,
  0x1A, 0x1C, 0x1B, 0x20, 0x12, 0x12, 0xFA, 0x0C, 0x2F, 0xF9,
  0x03, 0x1A, 0xFB, 0xFB, 0x13, 0x15, 0x0C, 0x16, 0x02, 0x0F,
  0x09, 0x0E, 0xFB, 0x1D, 0x0A, 0xF0, 0xEB, 0x1F, 0x01, 0x44,
  0xF6, 0x13, 0xE4, 0x01, 0xED, 0x45, 0xF9, 0x14, 0xD6, 0x04,
  0xFA, 0x3D, 0xED, 0x09, 0x0C, 0xC9, 0xFD, 0x14, 0x0E, 0x1F,
  0x19, 0xC7, 0x0C, 0xF8, 0x08, 0x1A, 0x07, 0xEA, 0xF6, 0xD8,
  0x17, 0xF7, 0x06, 0x0D, 0xFE, 0xF5, 0x23, 0xF6, 0xF0, 0x0E,
  0x09, 0x14, 0x22, 0x15, 0x13, 0x1B, 0x15, 0x0A, 0x02, 0x15,
  0x07, 0x0D, 0x17, 0x0E, 0x24, 0x13, 0x12, 0xF9, 0x04, 0xF9,
  0x27, 0x00, 0x0D, 0x08, 0x01, 0x0C, 0x1D, 0x10, 0x06, 0x15,
  0xF4, 0x1F, 0x1F, 0xED, 0xED, 0x19, 0xE9, 0x43, 0x0B, 0x16,
  0xF0, 0x00, 0xF3, 0x4F, 0xF5, 0x05, 0xD4, 0x03, 0xF4, 0x51,
  0xFA, 0xFE, 0xEC, 0x04, 0xFD, 0x16, 0x08, 0x0D, 0x14, 0xC9,
  0x07, 0xE6, 0xF8, 0x10, 0x22, 0xD9, 0x08, 0xFE, 0x08, 0x05,
  0x08, 0xDC, 0xF7, 0xF3, 0x16, 0x0A, 0x23, 0x07, 0xF8, 0xF4,
  0x07, 0x06, 0x15, 0xFE, 0xF8, 0xF2, 0x0B, 0xF4, 0x1E, 0xF8,
  0x09, 0x0D, 0x02, 0x17, 0x04, 0x0C, 0x17, 0x24, 0x0E, 0x0A,
  0x21, 0x1F, 0x01, 0x0D, 0x13, 0xF8, 0x0A, 0x08, 0x03, 0xFD,
  0x13, 0xF9, 0xF0, 0x06, 0xF2, 0xF6, 0x04, 0xF4, 0x05, 0x05,
  0x04, 0x13, 0x00, 0xF6, 0xED, 0xDD, 0xE9, 0x15, 0xFA, 0xF0,
  0x0C, 0x08, 0xEA, 0x21, 0x06, 0xF1, 0xF4, 0x0E, 0xE8, 0x0E,
  0xF3, 0xFD, 0x05, 0xE6, 0xE3, 0xFF, 0xF2, 0xFA, 0xFF, 0xD9,
  0xE7, 0x10, 0xF1, 0xFA, 0x13, 0x04, 0xF2, 0x12, 0xF7, 0xE9,
  0x07, 0x07, 0xE0, 0xF9, 0xE9, 0xE0, 0xF3, 0x08, 0xE0, 0x04,
  0x02, 0x04, 0x15, 0x16, 0x11, 0x0D, 0x20, 0x1B, 0x23, 0x0E,
  0x29, 0x21, 0x07, 0x04, 0x08, 0x01, 0x08, 0xFD, 0xFD, 0x04,
  0x0B, 0x1B, 0xF5, 0x18, 0x01, 0xED, 0x13, 0x0D, 0xF4, 0x1A,
  0xEF, 0xF7, 0x1A, 0x0A, 0xD9, 0x0A, 0xE8, 0xE5, 0x1B, 0x03,
  0xFB, 0x18, 0xE7, 0xEF, 0x1A, 0xE7, 0xDE, 0x00, 0x01, 0x06,
  0xE4, 0x10, 0x03, 0x07, 0xF4, 0xEF, 0x10, 0xFA, 0xE6, 0x05,
  0xEA, 0xE2, 0xF7, 0x05, 0xF1, 0xFA, 0xDA, 0xE4, 0xEB, 0x20,
  0xE0, 0xF1, 0xE9, 0xE5, 0xFE, 0x06, 0xDD, 0xEE, 0x02, 0xDF,
  0x10, 0x1A, 0x04, 0x11, 0x16, 0x0A, 0x01, 0x1A, 0x10, 0xF3,
  0x07, 0x17, 0x1C, 0x15, 0x25, 0x0B, 0x14, 0xF0, 0x16, 0x0F,
  0x0C, 0x0E, 0x18, 0xF9, 0x00, 0x08, 0xF1, 0x07, 0x14, 0x18,
  0x12, 0x16, 0x04, 0x16, 0x19, 0x05, 0x1B, 0x0C, 0x1C, 0x0A,
  0x14, 0x35, 0x12, 0x19, 0x12, 0x17, 0xF6, 0x2A, 0x24, 0x21,
  0x26, 0x10, 0x0C, 0x1A, 0x09, 0x16, 0x01, 0x18, 0xF4, 0x07,
  0xFF, 0x10, 0x24, 0x03, 0x0D, 0xF8, 0xFD, 0x20, 0x1C, 0x10,
  0x0D, 0x0B, 0xFB, 0x15, 0x18, 0x03, 0x0D, 0xFC, 0xFC, 0x1F,
  0xFE, 0x0B, 0x00, 0xF8, 0x07, 0xFE, 0x0D, 0x12, 0x12, 0x00,
  0xF4, 0xFC, 0x02, 0xF5, 0x10, 0x13, 0x0B, 0x15, 0xFE, 0x15,
  0x0E, 0xF1, 0x03, 0xF2, 0xFB, 0x03, 0x0D, 0xEB, 0x00, 0xFE,
  0x02, 0x0D, 0x07, 0xFA, 0x12, 0xF4, 0x06, 0xF4, 0xFB, 0xFC,
  0xFF, 0x09, 0x1B, 0x11, 0x14, 0x00, 0x09, 0x02, 0x11, 0x03,
  0xF5, 0x1D, 0xFD, 0x0F, 0x04, 0x0E, 0xFC, 0x0F, 0xF7, 0x00,
  0xF3, 0xF8, 0xFC, 0x11, 0x0E, 0xF7, 0xFC, 0x08, 0x00, 0x0F,
  0x06, 0x09, 0x18, 0xE1, 0x16, 0x0A, 0xF1, 0xFA, 0x11, 0x04,
  0x0C, 0x00, 0xFB, 0x16, 0xF2, 0x05, 0x0F, 0x02, 0xEF, 0x02,
  0xEF, 0xEF, 0x0D, 0x10, 0x11, 0x0E, 0xF0, 0xF7, 0x10, 0x10,
  0xFC, 0x07, 0x08, 0x00, 0x0B, 0x01, 0xF1, 0x13, 0x16, 0x09,
  0xFC, 0xFA, 0xFF, 0x06, 0xF8, 0x12, 0xF2, 0x11, 0x07, 0x11,
  0x11, 0x0A, 0x06, 0xF2, 0xF9, 0x0B, 0x0A, 0x04, 0x13, 0x24,
  0x08, 0x0C, 0x1D, 0xFB, 0x2A, 0x02, 0x1D, 0xFD, 0x0C, 0xE0,
  0x26, 0xF8, 0x02, 0xF1, 0x0C, 0xF4, 0x1F, 0x11, 0x06, 0xF5,
  0x11, 0xE8, 0xFA, 0x0F, 0xEE, 0x03, 0x0C, 0xBD, 0x0C, 0xF3,
  0x06, 0x02, 0x16, 0xEF, 0x04, 0x05, 0xED, 0x06, 0xF6, 0x00,
  0xED, 0xF1, 0xEE, 0xF5, 0x01, 0x00, 0x1A, 0x07, 0xFF, 0xFB,
  0xF4, 0x21, 0x02, 0x14, 0xFD, 0x0B, 0xEB, 0x1A, 0xFF, 0x13,
  0xF8, 0x06, 0x24, 0xFF, 0xF7, 0xFB, 0x1D, 0x08, 0x16, 0x1F,
  0x0C, 0xFE, 0x02, 0xF2, 0x0A, 0x09, 0x18, 0xF5, 0xFB, 0x14,
  0x18, 0x17, 0x23, 0xFE, 0xFE, 0xF9, 0xFA, 0x04, 0x14, 0xFB,
  0x1A, 0x0E, 0xF8, 0xF5, 0x26, 0x17, 0x0B, 0x04, 0xFC, 0xD3,
  0x1C, 0x0C, 0xFF, 0x09, 0x06, 0xC8, 0x23, 0x1B, 0x16, 0x0D,
  0x0A, 0xCB, 0x15, 0x00, 0xFA, 0x19, 0xF8, 0xD4, 0x18, 0xFD,
  0x06, 0x14, 0x04, 0xF3, 0x04, 0x00, 0x05, 0x12, 0x06, 0xF0,
  0x03, 0x0A, 0xEE, 0xFF, 0x14, 0x05, 0x00, 0x10, 0xF5, 0x02,
  0x15, 0x17, 0x05, 0x0F, 0x0F, 0x09, 0x16, 0xFD, 0x1C, 0xFA,
  0x11, 0x05, 0xF6, 0x17, 0x14, 0x14, 0xFE, 0xEC, 0xF0, 0x25,
  0x2A, 0x0B, 0x0E, 0xFC, 0xF1, 0x22, 0x13, 0x11, 0xF6, 0x0B,
  0x0B, 0xF0, 0x33, 0x02, 0xF2, 0x01, 0xFE, 0xD1, 0x13, 0xFC,
  0xE4, 0xEF, 0x0A, 0xE8, 0x2F, 0x1C, 0xF7, 0xF4, 0xF5, 0xEC,
  0x13, 0x02, 0xF7, 0x0D, 0x14, 0xD1, 0x01, 0x11, 0x16, 0x2C,
  0x04, 0xF7, 0x11, 0x04, 0x03, 0x28, 0x07, 0x03, 0x0D, 0x0C,
  0xF6, 0x24, 0x09, 0xFD, 0x0F, 0x0F, 0x19, 0x21, 0x14, 0x10,
  0x0D, 0x00, 0x0E, 0x15, 0x0C, 0x00, 0x04, 0x16, 0x19, 0x04,
  0xFB, 0xFA, 0x10, 0xF9, 0xFE, 0xFA, 0xEC, 0x0A, 0x38, 0xF8,
  0xF7, 0xE3, 0x0C, 0xFF, 0x2A, 0xEF, 0xF7, 0xEA, 0xE8, 0xF3,
  0x32, 0x01, 0xF5, 0xF9, 0x0E, 0xDD, 0x2F, 0x03, 0xD8, 0x04,
  0xFF, 0xE7, 0x19, 0x03, 0xEA, 0xEF, 0xE7, 0x0D, 0x18, 0xFE,
  0xE1, 0xF4, 0xE4, 0x14, 0x2C, 0x02, 0x02, 0xDE, 0x0D, 0x05,
  0x18, 0x07, 0xEC, 0xF4, 0xFD, 0xE2, 0x17, 0x05, 0x04, 0xF8,
  0x01, 0xEA, 0x1E, 0x06, 0x07, 0x2A, 0x0A, 0x0D, 0x21, 0x0B,
  0x09, 0x1A, 0x12, 0xF6, 0x15, 0x1C, 0xFC, 0xFE, 0x00, 0x1E,
  0x09, 0x15, 0xFC, 0xF6, 0x04, 0x0D, 0x07, 0xFF, 0x0A, 0x0B,
  0x01, 0x08, 0x04, 0x06, 0xE8, 0xF8, 0xF9, 0x04, 0x1F, 0xEB,
  0xD9, 0x1A, 0xE7, 0x0F, 0x0E, 0x09, 0xDC, 0x27, 0xF2, 0x25,
  0x1D, 0xFA, 0xE6, 0x15, 0xED, 0x09, 0x1E, 0x0E, 0xE8, 0x08,
  0x01, 0x24, 0x12, 0xE0, 0xEF, 0xED, 0xF5, 0x1E, 0x01, 0xF3,
  0xE3, 0xF9, 0xF5, 0x09, 0xF0, 0xF2, 0xFE, 0xFD, 0x17, 0xF8,
  0xFC, 0xFA, 0xF5, 0x1F, 0x13, 0xFC, 0xE3, 0x15, 0x06, 0x29,
  0x07, 0x00, 0x07, 0xFC, 0x17, 0x0F, 0x27, 0xF9, 0x1D, 0x1D,
  0x0E, 0x0E, 0x08, 0x26, 0x13, 0x0F, 0x02, 0x12, 0xFA, 0x18,
  0x0D, 0xF6, 0x29, 0x09, 0x01, 0x0B, 0x12, 0x0A, 0x06, 0x0C,
  0x09, 0x0A, 0x0B, 0xE2, 0xEA, 0x25, 0xF8, 0x25, 0x11, 0x10,
  0xE6, 0x1B, 0xF7, 0x32, 0x07, 0xF6, 0x04, 0x0E, 0xE8, 0x11,
  0xF7, 0xF1, 0xF7, 0x01, 0xEA, 0x1F, 0xF5, 0xE8, 0xF9, 0xFD,
  0xDF, 0x1D, 0xE3, 0xDD, 0xF6, 0xFB, 0xFB, 0xEF, 0xFD, 0x02,
  0x0F, 0x11, 0x08, 0xEE, 0xE2, 0x0B, 0x01, 0x13, 0x11, 0x07,
  0x02, 0xEF, 0xFA, 0x0D, 0x0D, 0xEE, 0xFA, 0x03, 0x13, 0xFE,
  0x10, 0xF4, 0x1B, 0x19, 0x19, 0x05, 0x28, 0x2A, 0xF5, 0x08,
  0x0C, 0x13, 0x01, 0x16, 0x00, 0x0C, 0x23, 0x2B, 0x19, 0x14,
  0xE5, 0xFC, 0x15, 0x0F, 0x0D, 0x22, 0x18, 0x0C, 0xF7, 0x12,
  0x07, 0x3F, 0x0F, 0x09, 0xE0, 0x01, 0x05, 0x33, 0xF9, 0x07,
  0x1B, 0x09, 0x01, 0x09, 0xF1, 0x02, 0x06, 0x0F, 0xE5, 0x05,
  0xE4, 0xE1, 0x0B, 0x0A, 0xF2, 0x0C, 0xFE, 0x02, 0x00, 0x1F,
  0xF6, 0xD7, 0x17, 0xF7, 0x0B, 0x11, 0x13, 0xFE, 0x29, 0x1D,
  0x14, 0x13, 0x0C, 0x11, 0x0E, 0xFF, 0xFA, 0x07, 0x17, 0xF6,
  0x2B, 0x03, 0x1F, 0x09, 0x02, 0x24, 0x0E, 0x28, 0x24, 0x24,
  0x0D, 0x0F, 0xFE, 0x20, 0x1B, 0x02, 0x0C, 0x1B, 0x12, 0x16,
  0x12, 0x04, 0x13, 0x18, 0x19, 0x10, 0x02, 0x03, 0xFF, 0x13,
  0x23, 0x15, 0x0A, 0x03, 0x16, 0x2E, 0xF0, 0x1D, 0x06, 0xF5,
  0x1F, 0xF6, 0xF7, 0xF4, 0x15, 0x07, 0x19, 0x0D, 0xFD, 0xF1,
  0x0F, 0xFA, 0x12, 0xED, 0x01, 0xF3, 0xF6, 0x22, 0x0E, 0xF0,
  0x2A, 0x07, 0x01, 0x0A, 0x06, 0x02, 0x1C, 0x11, 0x01, 0x13,
  0x0E, 0x28, 0x29, 0xFA, 0xF1, 0x1B, 0xF7, 0x0C, 0x11, 0x17,
  0x0D, 0xF7, 0x24, 0x21, 0x28, 0x05, 0xFA, 0x0F, 0x17, 0x07,
  0x13, 0x08, 0x20, 0x00, 0x2D, 0x05, 0x0F, 0x00, 0x02, 0x09,
  0x16, 0xF9, 0x0C, 0x1B, 0x0A, 0x01, 0x14, 0x04, 0x26, 0xFB,
  0x00, 0xF7, 0x05, 0x0D, 0x14, 0x19, 0xF9, 0xEF, 0x03, 0x1A,
  0x1F, 0x11, 0xFD, 0x13, 0xFA, 0xED, 0x15, 0x1E, 0x17, 0x01,
  0x18, 0xEC, 0x19, 0x12, 0x0C, 0x0F, 0xF4, 0xF2, 0x0D, 0xFB,
  0xF4, 0x2F, 0x0C, 0xFA, 0x07, 0xF8, 0xEB, 0x1F, 0xFE, 0xFD,
  0x1A, 0x18, 0xE7, 0x2F, 0x16, 0x04, 0x14, 0x0C, 0xEA, 0x1A,
  0x11, 0x10, 0x12, 0xFE, 0x04, 0x0A, 0x0C, 0x02, 0x05, 0x08,
  0x17, 0x0D, 0xF6, 0xF7, 0xF8, 0x22, 0xFC, 0xF6, 0x1C, 0x11,
  0x0D, 0x09, 0x05, 0x12, 0x23, 0x01, 0x08, 0xFA, 0x0C, 0x01,
  0xFF, 0x00, 0xF8, 0x0C, 0xFC, 0x00, 0xFC, 0x0F, 0xFF, 0xFC,
  0x07, 0x07, 0xF7, 0xFD, 0x00, 0xF9, 0xFE, 0x0E, 0x16, 0xEC,
  0x24, 0x0C, 0x04, 0xFA, 0x01, 0x00, 0x02, 0x02, 0x0A, 0x03,
  0x08, 0x12, 0x14, 0x00, 0x0E, 0x00, 0x13, 0x10, 0x0C, 0xF8,
  0xF8, 0x0C, 0x12, 0x08, 0x10, 0xF9, 0x07, 0x11, 0xF1, 0x06,
  0x17, 0xF9, 0xF4, 0x00, 0xEC, 0xFA, 0x10, 0x0B, 0xF8, 0xF5,
  0x0E, 0x15, 0x08, 0xF7, 0xF3, 0x11, 0xFC, 0x09, 0xFE, 0x09,
  0xFC, 0xF9, 0x0A, 0xFD, 0x0E, 0x0E, 0xF0, 0x19, 0x09, 0x16,
  0xF3, 0x02, 0xF9, 0x04, 0x0E, 0x0C, 0x0E, 0xF5, 0x01, 0x0C,
  0xF2, 0xF4, 0x07, 0xFD, 0x04, 0xFD, 0x0D, 0xF5, 0xF5, 0xFF,
  0xEC, 0x08, 0xFF, 0xFB, 0x01, 0x0F, 0xFC, 0xFD, 0x1E, 0xF8,
  0x0D, 0x1C, 0xEB, 0x00, 0x04, 0xFA, 0xF3, 0xFE, 0xE4, 0x12,
  0x0D, 0xE7, 0xFE, 0x0D, 0xF1, 0x10, 0x0C, 0x04, 0xEB, 0xF4,
  0xF0, 0x1F, 0xF4, 0x11, 0xFC, 0xFB, 0x02, 0xFB, 0x03, 0xFE,
  0xFA, 0x0E, 0xF8, 0x06, 0xE8, 0x09, 0x0F, 0xFF, 0xFB, 0xF1,
  0xF5, 0x19, 0x08, 0xFF, 0x13, 0x16, 0x00, 0x0D, 0x07, 0x08,
  0xF6, 0xF6, 0x07, 0x0B, 0x1B, 0x0E, 0x0B, 0x16, 0x0C, 0xF3,
  0x06, 0x0E, 0x12, 0xF2, 0x10, 0x13, 0xFD, 0x08, 0xEE, 0x0C,
  0xF8, 0x1C, 0x1A, 0x02, 0xF3, 0x16, 0xF1, 0xFC, 0x00, 0x1C,
  0xED, 0xF3, 0x17, 0xEE, 0x0E, 0x1A, 0x0A, 0x0C, 0xFD, 0xF9,
  0xF5, 0x0B, 0xF2, 0x12, 0x02, 0xF6, 0x13, 0x03, 0x01, 0x0B,
  0xF1, 0xF5, 0x00, 0x04, 0x06, 0x04, 0xF4, 0x07, 0xF4, 0x03,
  0xFA, 0xEE, 0xFB, 0x00, 0xFF, 0xE7, 0xF8, 0x06, 0xEC, 0xFC,
  0x07, 0x11, 0xFC, 0x14, 0x01, 0x10, 0xFE, 0x17, 0xF6, 0xF2,
  0x07, 0x0E, 0x09, 0xEB, 0xF2, 0xE8, 0xE9, 0xED, 0xEC, 0x08,
  0xEA, 0xF0, 0x02, 0x0F, 0xF5, 0xFA, 0x0B, 0xFB, 0x06, 0xF2,
  0x01, 0xE7, 0xE3, 0xF6, 0x02, 0xF1, 0x05, 0xF5, 0xE8, 0xDE,
  0xEE, 0x09, 0x10, 0xDD, 0xEF, 0xF5, 0xFA, 0x00, 0x0E, 0xE2,
  0xF6, 0x05, 0x07, 0xEC, 0xEB, 0x06, 0xED, 0xE6, 0xEB, 0xF5,
  0x00, 0x01, 0xF9, 0x06, 0xFF, 0xE9, 0xF6, 0xFE, 0xDF, 0x0C,
  0xF3, 0xED, 0x06, 0xE1, 0x02, 0xEA, 0xF2, 0xEF, 0xEB, 0xFA,
  0xEC, 0xF9, 0xE4, 0xEE, 0xEA, 0x09, 0xF0, 0x07, 0xF0, 0xFC,
  0xFD, 0xE7, 0xF3, 0x0C, 0x0B, 0xEC, 0xEC, 0xFB, 0xF2, 0x0B,
  0xED, 0xEE, 0xFE, 0xF4, 0xF1, 0xFA, 0xFA, 0x00, 0xEB, 0x13,
  0x0E, 0xEB, 0x12, 0xFE, 0xF1, 0x0C, 0xF8, 0xF6, 0xEC, 0x03,
  0xFD, 0x0F, 0x07, 0x00, 0x0E, 0xF4, 0x0A, 0x19, 0x08, 0x07,
  0xFE, 0xF6, 0xFC, 0xFD, 0xFD, 0x0D, 0x17, 0xCF, 0xFD, 0x1A,
  0x0C, 0x0F, 0xFE, 0xC7, 0xF8, 0x15, 0x12, 0x15, 0xFA, 0xBF,
  0xD6, 0xEC, 0xED, 0x11, 0xE4, 0xDF, 0xDF, 0xDF, 0xDC, 0xEE,
  0xFA, 0xED, 0xF5, 0xE6, 0xF6, 0xD9, 0xF6, 0xE4, 0x00, 0xE4,
  0x0B, 0xE8, 0xE2, 0xF5, 0xEC, 0xFE, 0x02, 0xFF, 0x04, 0xEB,
  0x00, 0xF4, 0xE9, 0xFB, 0xFB, 0xFE, 0xF9, 0xF1, 0x06, 0x08,
  0xFF, 0xE9, 0xEF, 0xEB, 0x06, 0xED, 0xF4, 0xFC, 0x13, 0x11,
  0x0C, 0xF9, 0xF2, 0x0C, 0x3D, 0x11, 0x00, 0x1D, 0x10, 0x0A,
  0x47, 0x1D, 0x0C, 0x07, 0x17, 0xD2, 0x1D, 0x0C, 0x1E, 0x17,
  0x24, 0xB1, 0x10, 0x16, 0x15, 0x27, 0x0C, 0xB3, 0xF1, 0xFE,
  0x14, 0x1B, 0x18, 0xA0, 0x08, 0x1B, 0x09, 0x12, 0x0E, 0xE7,
  0xE3, 0xEB, 0xEE, 0x05, 0x04, 0xEA, 0xE2, 0xEA, 0x00, 0x08,
  0xEB, 0x10, 0x03, 0xE4, 0x05, 0xF6, 0xDC, 0x10, 0xF3, 0x03,
  0xE8, 0x05, 0xF1, 0xE8, 0x09, 0xEB, 0xEE, 0xFD, 0xEA, 0xF3,
  0x13, 0xFB, 0x03, 0x04, 0x16, 0x00, 0x1E, 0x00, 0x0E, 0x0B,
  0x15, 0xFD, 0x33, 0x05, 0x06, 0xFC, 0x12, 0x02, 0x48, 0x09,
  0x03, 0x25, 0x0C, 0xDE, 0x3E, 0x0E, 0x01, 0x10, 0x02, 0xB3,
  0x2A, 0x1B, 0xFD, 0x16, 0xFC, 0xA9, 0x1A, 0x06, 0x21, 0xF1,
  0xFE, 0xAF, 0xFB, 0x03, 0x2D, 0x0A, 0xFD, 0xBD, 0xE4, 0x05,
  0x0E, 0x03, 0xFF, 0xE1, 0xE0, 0x10, 0x14, 0xFB, 0x08, 0xFD,
  0xE4, 0xED, 0x0E, 0x04, 0x02, 0xFD, 0xE5, 0xFE, 0x06, 0xF4,
  0xEA, 0xF7, 0xFA, 0xFA, 0xF2, 0xFA, 0x08, 0xE5, 0xF7, 0xF2,
  0xFB, 0xF4, 0xF9, 0xFC, 0x03, 0x0D, 0x15, 0x01, 0xF9, 0xEF,
  0x2C, 0x0F, 0x1D, 0x1B, 0xFF, 0xEA, 0x18, 0xF1, 0xED, 0x1C,
  0xFD, 0x06, 0x25, 0x10, 0x05, 0x12, 0x0F, 0xEB, 0x3B, 0x10,
  0x0E, 0x07, 0x06, 0xDD, 0x38, 0x19, 0x01, 0x09, 0x07, 0xCA,
  0x1E, 0x1E, 0x16, 0xFC, 0x08, 0xF4, 0xF3, 0x02, 0x25, 0xD7,
  0xFD, 0xED, 0xF1, 0x0A, 0x22, 0xFF, 0x11, 0xFA, 0xEB, 0x18,
  0x21, 0x00, 0x08, 0xED, 0xF5, 0xFB, 0x15, 0xE0, 0xF7, 0xE6,
  0xEF, 0xF5, 0xDE, 0xFC, 0xED, 0xDD, 0x05, 0xF6, 0x09, 0x03,
  0x0C, 0xF8, 0xEC, 0xE4, 0xF3, 0xFC, 0x02, 0xE9, 0x0B, 0xF9,
  0xFB, 0x0F, 0xFD, 0xF6, 0x1D, 0x0D, 0xFC, 0xF7, 0x0E, 0xF6,
  0x31, 0x04, 0x0C, 0xFE, 0xFF, 0x10, 0x29, 0x0F, 0x1A, 0x1A,
  0x01, 0xFE, 0x15, 0x09, 0x0F, 0x0C, 0x05, 0xE7, 0x11, 0xE7,
  0x01, 0xF9, 0x12, 0x05, 0x00, 0xFB, 0xF0, 0x10, 0x01, 0x09,
  0x03, 0x16, 0x1B, 0x18, 0x17, 0x03, 0xF0, 0x01, 0x1D, 0xEF,
  0x08, 0x19, 0x14, 0x04, 0xF8, 0xE7, 0x0E, 0x0C, 0x21, 0x04,
  0xE0, 0xDF, 0xF8, 0xFF, 0x05, 0xF1, 0xE2, 0xF9, 0xEA, 0x1C,
  0xFE, 0xF0, 0xF6, 0xED, 0x29, 0xF3, 0x0D, 0xEA, 0xED, 0x0C,
  0xF2, 0xEA, 0x05, 0x11, 0xFF, 0xEC, 0xF9, 0xEF, 0x14, 0xFE,
  0x0A, 0xFF, 0xF5, 0x09, 0x22, 0xF4, 0x17, 0x14, 0x04, 0x12,
  0x28, 0x19, 0x12, 0x0D, 0x15, 0xFE, 0x0B, 0x0C, 0x1F, 0xEF,
  0x04, 0xFA, 0x2B, 0xEE, 0x21, 0x17, 0x01, 0xDE, 0x0B, 0xF1,
  0xF0, 0x22, 0x08, 0xE9, 0x02, 0xFF, 0x11, 0x19, 0x15, 0xF4,
  0x0C, 0x13, 0x07, 0xF8, 0x02, 0x25, 0x1D, 0x02, 0xFB, 0xF4,
  0x0A, 0x28, 0x11, 0x08, 0xE4, 0xFD, 0xF6, 0x21, 0x16, 0x00,
  0xDA, 0x02, 0xFD, 0x05, 0x0A, 0x00, 0x13, 0xFD, 0x18, 0xFC,
  0xFF, 0x07, 0x16, 0x14, 0x0D, 0x0D, 0xE8, 0x17, 0x11, 0x04,
  0x15, 0x00, 0x0E, 0x01, 0x1E, 0x0F, 0x12, 0xF4, 0x12, 0xF4,
  0x0B, 0xF4, 0xFB, 0xF9, 0x2B, 0x10, 0x25, 0xF3, 0xF7, 0xC9,
  0x34, 0x08, 0x25, 0xFA, 0xFA, 0xBE, 0x2B, 0xF1, 0x0D, 0xFF,
  0x12, 0xAB, 0x27, 0xF8, 0xFE, 0x12, 0xFE, 0xFA, 0xF7, 0x11,
  0x0D, 0x17, 0x0A, 0xF4, 0x24, 0x20, 0x0C, 0x22, 0x1C, 0x16,
  0x24, 0x01, 0x0A, 0x11, 0x03, 0x2B, 0x0F, 0xF5, 0xEA, 0x22,
  0x07, 0x1B, 0xFF, 0x06, 0xFB, 0x1E, 0x05, 0x17, 0xF7, 0x00,
  0xFD, 0x01, 0x29, 0x10, 0x0A, 0xFA, 0xF7, 0x25, 0x1D, 0xFB,
  0xE7, 0x14, 0x16, 0x14, 0x1D, 0x02, 0xFD, 0x0F, 0x13, 0x14,
  0x07, 0xF4, 0x29, 0x02, 0x11, 0xF6, 0x07, 0xC2, 0x1B, 0xF1,
  0x13, 0xFE, 0x08, 0xB2, 0x4B, 0x02, 0x09, 0x09, 0xF1, 0xA0,
  0x3A, 0xEF, 0x0A, 0x06, 0x03, 0xD0, 0x08, 0xF0, 0xE3, 0x16,
  0xF6, 0xE2, 0x18, 0x14, 0x08, 0x1B, 0x02, 0xFA, 0x15, 0x20,
  0x0C, 0x08, 0x18, 0x03, 0x0C, 0x03, 0xF4, 0xF6, 0x00, 0x0B,
  0xFA, 0xF6, 0x04, 0x15, 0xF9, 0x0C, 0xFE, 0x01, 0xE1, 0x27,
  0xF5, 0xFE, 0xFE, 0xFF, 0x13, 0x07, 0x1A, 0x09, 0xFC, 0x0D,
  0x10, 0x06, 0x0F, 0x0E, 0xF1, 0x1D, 0x1C, 0x18, 0x14, 0xED,
  0xF2, 0x11, 0x31, 0x05, 0x14, 0xF2, 0x26, 0xF9, 0x29, 0x13,
  0xF7, 0xDE, 0x24, 0xEE, 0xED, 0x1C, 0x06, 0xA2, 0x46, 0xF4,
  0xF4, 0x01, 0x09, 0xB1, 0x29, 0xFB, 0xFD, 0x05, 0xE4, 0xCD,
  0xFF, 0x02, 0x01, 0x1B, 0x00, 0xF5, 0x19, 0xFC, 0x19, 0xFE,
  0x0D, 0x0E, 0x1A, 0x1C, 0x12, 0xE4, 0x15, 0x17, 0xF7, 0xFE,
  0x04, 0x07, 0xF5, 0x0D, 0x12, 0x0B, 0xF4, 0xFB, 0xF1, 0xE9,
  0xFB, 0xF3, 0xF2, 0x14, 0x09, 0xFD, 0x1C, 0xFD, 0xFC, 0x13,
  0x15, 0x09, 0x09, 0xFA, 0xF7, 0x15, 0x1B, 0xFB, 0x08, 0x0B,
  0xF6, 0x11, 0xF1, 0xF9, 0x1B, 0xFE, 0xF8, 0xF0, 0x08, 0x13,
  0x1B, 0x0B, 0x23, 0x01, 0x11, 0xFC, 0x1A, 0xEE, 0x13, 0x12,
  0x12, 0xE8, 0x1D, 0xE9, 0x1D, 0x1C, 0xFE, 0xF4, 0xF7, 0x02,
  0x00, 0x19, 0x0A, 0xF2, 0xFA, 0xE8, 0xDE, 0x1A, 0x0F, 0xFA,
  0xED, 0xFB, 0xFF, 0x22, 0x00, 0x26, 0xFF, 0x08, 0x02, 0xF0,
  0x1B, 0xFB, 0x0D, 0xF6, 0xFF, 0x16, 0x13, 0x09, 0x10, 0xF5,
  0xFD, 0x0F, 0x0B, 0xE2, 0xF1, 0xF0, 0xF3, 0x15, 0xFF, 0x07,
  0xF7, 0x03, 0xF9, 0x07, 0x07, 0xF5, 0x00, 0x00, 0xFE, 0x00,
  0x11, 0xF8, 0x03, 0xFB, 0x0D, 0xF7, 0xF7, 0x09, 0xE8, 0xFD,
  0xFF, 0x03, 0x09, 0x0A, 0x05, 0x10, 0x08, 0x1F, 0x03, 0xEB,
  0x11, 0x0F, 0x23, 0x0B, 0xF3, 0x05, 0xF4, 0xF0, 0x1E, 0x16,
  0x06, 0xF3, 0x0C, 0xE4, 0x06, 0x37, 0xE5, 0x0E, 0xFF, 0xE8,
  0xEE, 0x28, 0xFE, 0x15, 0xEA, 0xEA, 0x0F, 0xF8, 0x11, 0x00,
  0x08, 0xFE, 0x12, 0x09, 0x1D, 0x18, 0xFE, 0x07, 0x02, 0x14,
  0x1C, 0x09, 0x0C, 0x14, 0xF7, 0x1D, 0x0E, 0xFB, 0x07, 0xF0,
  0x01, 0x1C, 0x03, 0xF1, 0xF7, 0xF9, 0xEC, 0x0A, 0xF2, 0x03,
  0x07, 0x18, 0x06, 0x07, 0xFC, 0xEB, 0xF2, 0xF3, 0x0B, 0x0E,
  0xEF, 0xFB, 0x0C, 0x14, 0x02, 0x12, 0x05, 0xFD, 0x10, 0x00,
  0x08, 0x17, 0x07, 0xF5, 0xF4, 0x20, 0x0A, 0x1F, 0x05, 0xE6,
  0x04, 0x1D, 0xE9, 0x24, 0x14, 0xEF, 0x09, 0x07, 0xF4, 0x2C,
  0xFF, 0x09, 0x0F, 0x15, 0x0F, 0x17, 0xFE, 0x08, 0xF7, 0x13,
  0xFA, 0xFE, 0xF6, 0xEF, 0x03, 0x10, 0x0F, 0xFE, 0xF8, 0x06,
  0x0E, 0x0D, 0x01, 0xFA, 0x02, 0xF3, 0x17, 0x02, 0xFF, 0x08,
  0x1A, 0xFA, 0x12, 0x18, 0x1F, 0xE9, 0x13, 0x22, 0xF0, 0x02,
  0x0A, 0xEB, 0x02, 0x08, 0xF5, 0xF4, 0x0F, 0x0D, 0xF9, 0x07,
  0xF4, 0x09, 0x06, 0xFD, 0x08, 0xFF, 0x07, 0x0A, 0x05, 0xF8,
  0x12, 0x11, 0x13, 0x1C, 0xF2, 0xF4, 0x20, 0x15, 0x0D, 0x17,
  0xF9, 0x1B, 0x08, 0x22, 0x0B, 0x15, 0x10, 0x03, 0x19, 0x12,
  0x18, 0x02, 0x07, 0xEC, 0x0E, 0x1F, 0x2B, 0x1B, 0x26, 0xE7,
  0x19, 0x19, 0x18, 0x1A, 0x18, 0xEB, 0x0C, 0x10, 0x11, 0x09,
  0x03, 0x09, 0x22, 0x05, 0x0A, 0x0B, 0x03, 0x03, 0x16, 0xFD,
  0x06, 0x11, 0x1D, 0x05, 0x14, 0x1D, 0xEF, 0x1F, 0x0A, 0xF7,
  0x08, 0xF5, 0xF0, 0x0A, 0x09, 0xF0, 0x09, 0x0F, 0x1A, 0x0E,
  0xFA, 0x17, 0x17, 0xFC, 0x11, 0x1B, 0x1B, 0x02, 0x01, 0x02,
  0x16, 0xEE, 0x1D, 0xFD, 0xF0, 0x12, 0x13, 0x07, 0xF3, 0xFC,
  0xF0, 0x18, 0x0F, 0xE7, 0x01, 0xEE, 0xFE, 0x0F, 0x0D, 0xEB,
  0xF7, 0xEC, 0xF0, 0x06, 0x01, 0x09, 0x0E, 0xF5, 0x08, 0xFB,
  0x11, 0xF0, 0x09, 0xF5, 0x01, 0x08, 0x09, 0xF7, 0xFF, 0x00,
  0x0C, 0x05, 0x04, 0xEC, 0x02, 0x07, 0xF7, 0x02, 0x11, 0xFA,
  0xF5, 0xFB, 0x0F, 0xF8, 0x17, 0x03, 0x0D, 0x06, 0xE8, 0x00,
  0xFD, 0xF7, 0x12, 0x02, 0xEC, 0xFF, 0x1A, 0x10, 0x17, 0x1A,
  0x1C, 0x02, 0xFE, 0xF6, 0x14, 0x1D, 0x04, 0x0B, 0x17, 0x1B,
  0x01, 0x0D, 0x0B, 0xFA, 0x13, 0x13, 0x03, 0x11, 0x13, 0x07,
  0x23, 0x0D, 0x13, 0x0A, 0xE9, 0x0F, 0x1B, 0xF1, 0x05, 0x10,
  0xF8, 0x12, 0x0D, 0xFD, 0x04, 0x09, 0x0C, 0xF8, 0x17, 0xEF,
  0x0C, 0xF1, 0xEE, 0x07, 0x10, 0xFE, 0xE6, 0x0F, 0xFD, 0xFB,
  0x01, 0xF1, 0xF1, 0xF1, 0xF0, 0x0A, 0xED, 0xFC, 0xE8, 0xFB,
  0xE5, 0xEE, 0x03, 0xE2, 0x01, 0xF4, 0xF5, 0xF6, 0x0C, 0xE4,
  0xF0, 0x04, 0x06, 0x0F, 0x1B, 0xE5, 0x0B, 0x05, 0xF6, 0xFB,
  0x0F, 0x06, 0x0B, 0x06, 0xF5, 0x17, 0x02, 0x16, 0x11, 0xFA,
  0x02, 0x1B, 0x06, 0xF9, 0xF3, 0x0D, 0x02, 0x10, 0x0A, 0x11,
  0x1B, 0x02, 0x0E, 0xFE, 0xFB, 0x0B, 0x1C, 0x06, 0x03, 0xFE,
  0x03, 0x13, 0x1B, 0x03, 0x07, 0x11, 0xE6, 0x04, 0x10, 0x0E,
  0x0F, 0xFA, 0x08, 0x1E, 0x28, 0x22, 0x0C, 0xC9, 0xF8, 0x1F,
  0x08, 0x03, 0x1E, 0xE1, 0x04, 0xFB, 0x10, 0x18, 0x04, 0x00,
  0x1F, 0x13, 0x09, 0x13, 0x17, 0x16, 0x29, 0xFA, 0xF8, 0xF6,
  0xFD, 0x00, 0x0A, 0x06, 0xEF, 0x05, 0x09, 0x1D, 0x1A, 0xF9,
  0xF1, 0x04, 0x11, 0xF3, 0x14, 0xFA, 0x20, 0xFB, 0x05, 0x0C,
  0x1B, 0x07, 0x1B, 0x08, 0xFA, 0x04, 0x03, 0xFF, 0x12, 0xF0,
  0xFA, 0x0F, 0xFF, 0x18, 0x22, 0x01, 0x00, 0x07, 0xEA, 0x1B,
  0x08, 0x17, 0x0E, 0x0E, 0xFF, 0x0C, 0x1D, 0x1F, 0x23, 0xFB,
  0x22, 0x21, 0x20, 0x26, 0x04, 0xC8, 0x0B, 0x14, 0x05, 0x28,
  0x1B, 0xD2, 0x19, 0x1B, 0x13, 0x12, 0x0F, 0xF3, 0x24, 0x07,
  0x09, 0x15, 0x1D, 0xFD, 0x34, 0x0A, 0xF4, 0x25, 0x1E, 0x16,
  0x1F, 0x09, 0x11, 0x0A, 0x17, 0x12, 0x17, 0xFE, 0x07, 0x1A,
  0x05, 0x03, 0x18, 0x14, 0xFD, 0x19, 0x0F, 0xED, 0x19, 0x0B,
  0x0E, 0x03, 0x0B, 0x08, 0xFB, 0x16, 0x02, 0x20, 0x13, 0x1D,
  0x09, 0xFC, 0x1E, 0x03, 0xF8, 0xFD, 0xF7, 0x0D, 0x25, 0x1B,
  0x29, 0x0D, 0xF4, 0x0D, 0x0C, 0x09, 0x2B, 0xD9, 0xE8, 0x0B,
  0x1B, 0x04, 0x10, 0xF6, 0x0B, 0x1B, 0x1C, 0x17, 0x18, 0xF5,
  0x16, 0x23, 0x1E, 0x25, 0x09, 0xDB, 0x2A, 0x1B, 0x13, 0x1F,
  0x0C, 0xD5, 0x3D, 0x22, 0x0E, 0x0B, 0x1C, 0xFF, 0x35, 0x0E,
  0x0E, 0x16, 0x1F, 0x06, 0x1F, 0x09, 0x14, 0x28, 0x10, 0x08,
  0x0B, 0x08, 0xFD, 0x39, 0x16, 0x04, 0x09, 0xFE, 0x00, 0x18,
  0x0E, 0xEB, 0x21, 0x22, 0x13, 0x29, 0x1F, 0x15, 0x07, 0x1F,
  0x13, 0x04, 0x28, 0x1E, 0xF2, 0x18, 0x2B, 0x1D, 0x09, 0x17,
  0xE6, 0x12, 0x13, 0x00, 0x0D, 0x06, 0xEF, 0x07, 0x0B, 0xF5,
  0x19, 0xE5, 0x08, 0x06, 0x1E, 0xE2, 0x1A, 0xDF, 0x11, 0xFD,
  0x22, 0x01, 0x24, 0xEA, 0x19, 0x0E, 0x3A, 0x17, 0x2C, 0xC3,
  0x02, 0x1C, 0x2D, 0x28, 0x19, 0xC9, 0x1B, 0x0D, 0x13, 0x3B,
  0x1A, 0xDA, 0x42, 0x19, 0xF0, 0x21, 0x14, 0x06, 0x2C, 0x0A,
  0x07, 0x2C, 0xF8, 0x1C, 0x23, 0x17, 0xF5, 0xF9, 0xEC, 0x11,
  0x1C, 0x13, 0xFF, 0x0D, 0x06, 0xFF, 0x2C, 0x0D, 0x22, 0xEB,
  0x2A, 0x01, 0xFD, 0x03, 0x01, 0x10, 0x13, 0xF6, 0x19, 0x10,
  0xFD, 0x06, 0xFF, 0x02, 0x10, 0x00, 0xE3, 0xEB, 0xFF, 0x28,
  0x11, 0xFE, 0xF6, 0xD0, 0xF8, 0xF8, 0x09, 0xFA, 0x18, 0xCF,
  0x14, 0xD6, 0x15, 0xFC, 0x19, 0xEE, 0x22, 0xF8, 0x05, 0x18,
  0x32, 0x07, 0x32, 0xDB, 0x31, 0x15, 0x3B, 0x06, 0x14, 0xC4,
  0x3F, 0x16, 0x27, 0xF9, 0x16, 0xEF, 0x3F, 0x12, 0x01, 0x06,
  0xF4, 0x0A, 0x17, 0x0D, 0x00, 0x2F, 0x04, 0xFD, 0x13, 0x05,
  0x0E, 0x16, 0xF6, 0x0C, 0x21, 0x01, 0x0F, 0x0C, 0xE7, 0x18,
  0x1E, 0xFC, 0x1A, 0xE5, 0x14, 0x1F, 0x0F, 0x04, 0xFF, 0x09,
  0xFF, 0x18, 0x1B, 0xFA, 0x01, 0xF3, 0xFA, 0x00, 0x3E, 0x01,
  0xE8, 0xEC, 0xFC, 0x21, 0x30, 0x03, 0xEF, 0xD1, 0xFD, 0xFB,
  0x20, 0xE8, 0x16, 0xF5, 0xEA, 0xD0, 0xF9, 0x0A, 0x0A, 0xF8,
  0x11, 0xF7, 0x2E, 0x29, 0x23, 0x06, 0x2F, 0xDC, 0x22, 0x1B,
  0x2D, 0xF0, 0x10, 0xBE, 0x1F, 0x0C, 0x1C, 0xDF, 0xFC, 0x02,
  0x0E, 0x22, 0x2A, 0x03, 0xF1, 0x16, 0x0F, 0xF2, 0x19, 0x12,
  0x03, 0xFB, 0xD4, 0xF4, 0x14, 0xF5, 0xEB, 0xFE, 0xED, 0x00,
  0xEE, 0x09, 0xFC, 0x05, 0xE0, 0xDC, 0xFF, 0xEB, 0xE2, 0xEE,
  0x15, 0x0F, 0xFF, 0x1B, 0x19, 0xFF, 0xFA, 0x09, 0x1B, 0xFD,
  0xF9, 0x1A, 0x1A, 0xE6, 0x18, 0xE5, 0x02, 0x0E, 0x1A, 0xFE,
  0x1E, 0xF1, 0xE7, 0xE2, 0x2A, 0xE3, 0x13, 0x05, 0xDF, 0xD0,
  0x1C, 0x0C, 0x0D, 0x07, 0xE9, 0xE0, 0x27, 0x1F, 0xF6, 0xFD,
  0x01, 0xCF, 0x20, 0x15, 0x19, 0xE3, 0x18, 0xE1, 0x12, 0x0D,
  0x10, 0xE6, 0xFD, 0xF2, 0xF2, 0xF3, 0x2B, 0xED, 0xE8, 0xF6,
  0xE8, 0xEC, 0x19, 0x0A, 0x0C, 0xED, 0xBE, 0xFE, 0x0F, 0xE3,
  0xF7, 0xF2, 0xC6, 0xE7, 0xF6, 0xF9, 0x05, 0xE2, 0xF6, 0xEC,
  0xDE, 0x08, 0xEB, 0xFD, 0x19, 0xFD, 0x04, 0x04, 0x05, 0x1B,
  0x00, 0xF9, 0x04, 0xFA, 0xFC, 0x1C, 0x1B, 0xED, 0x13, 0x18,
  0xFF, 0x0B, 0xF6, 0xF0, 0x0A, 0x09, 0xEA, 0xFF, 0x1B, 0xF7,
  0xF6, 0x0C, 0xE0, 0x05, 0x29, 0xFF, 0xF3, 0x05, 0xEF, 0x13,
  0x18, 0xF1, 0xF9, 0x03, 0xF6, 0xEC, 0xFA, 0xF8, 0x05, 0xFB,
  0x10, 0xFC, 0xF2, 0xF1, 0x1F, 0xF2, 0xF6, 0x20, 0xD7, 0xF3,
  0x29, 0xFA, 0xEA, 0x0E, 0xCA, 0x0B, 0x04, 0xE7, 0xF2, 0xF7,
  0xDB, 0x08, 0xFC, 0xE0, 0x0B, 0xEC, 0xEB, 0xFD, 0x02, 0xDB,
  0x00, 0xE4, 0xEF, 0xE5, 0xF0, 0xE7, 0xE5, 0xFD, 0x04, 0x00,
  0xFC, 0xF6, 0xF4, 0x0A, 0xFF, 0xF6, 0x15, 0x00, 0xEC, 0x17,
  0x02, 0x12, 0x07, 0x21, 0xF2, 0xF5, 0x11, 0xEE, 0x16, 0xFD,
  0xF6, 0x01, 0x09, 0xFE, 0x0E, 0xFE, 0x0C, 0x0D, 0x05, 0xE1,
  0x11, 0x1D, 0x01, 0xFD, 0xFF, 0xF5, 0xFA, 0x11, 0x0F, 0xFF,
  0xDD, 0x0C, 0x1F, 0x12, 0x0F, 0x2F, 0xFB, 0xF6, 0x06, 0x00,
  0xFC, 0x1A, 0xFC, 0xF5, 0x10, 0x00, 0x0F, 0x26, 0xFE, 0x09,
  0xEF, 0xBF, 0x0A, 0x1C, 0xF2, 0x09, 0xF6, 0xBC, 0xFF, 0x0E,
  0xF7, 0xEF, 0x03, 0xEE, 0x0C, 0x03, 0xFA, 0xFB, 0xF8, 0x00,
  0xD8, 0xF9, 0x04, 0x0D, 0x1F, 0xF8, 0xFE, 0x1E, 0xF9, 0x17,
  0x1B, 0x1A, 0x14, 0x0F, 0xFF, 0xFE, 0x13, 0x1C, 0x08, 0xEA,
  0x19, 0x04, 0x17, 0xF7, 0x14, 0xF2, 0xEF, 0x02, 0x05, 0x1C,
  0x10, 0xE5, 0xF9, 0xFC, 0x0B, 0x1D, 0xF1, 0xF6, 0xEC, 0xF9,
  0x05, 0x1E, 0x13, 0x03, 0x02, 0x17, 0x06, 0x0D, 0x0E, 0x30,
  0x0F, 0xF1, 0xEB, 0x11, 0xFD, 0x26, 0x04, 0x0E, 0xDE, 0x0F,
  0x14, 0x17, 0x0B, 0xE7, 0xDF, 0xE6, 0x05, 0x0F, 0xEE, 0xF9,
  0x03, 0xEE, 0xF3, 0x07, 0x00, 0xED, 0x15, 0xFC, 0xEC, 0x0C,
  0x04, 0xFB, 0x10, 0xFE, 0x0A, 0x05, 0x16, 0xF3, 0x1A, 0x08,
  0xF6, 0x10, 0x03, 0x17, 0x1D, 0x0D, 0x13, 0x12, 0x0B, 0x10,
  0x21, 0x26, 0x0A, 0x12, 0x0B, 0xFC, 0x23, 0x20, 0x18, 0xF6,
  0x05, 0x01, 0x2D, 0x40, 0x19, 0x0F, 0xF3, 0x0A, 0x2A, 0x44,
  0x09, 0xF0, 0x08, 0x03, 0x22, 0x42, 0x03, 0x03, 0x0E, 0x0D,
  0x11, 0x45, 0x0C, 0x13, 0x0B, 0x18, 0x2D, 0x2D, 0xFB, 0x2E,
  0x02, 0x03, 0xFC, 0x10, 0x1C, 0x06, 0x11, 0xF0, 0xF7, 0x13,
  0xFC, 0x06, 0x1C, 0xF9, 0xF3, 0x08, 0xF5, 0xF1, 0x06, 0x04,
  0x17, 0x01, 0xFF, 0xFC, 0x02, 0x13, 0x13, 0x0A, 0xF6, 0x0C,
  0x04, 0x09, 0xFA, 0x12, 0xFF, 0x00, 0x07, 0x30, 0x1D, 0x0D,
  0x33, 0x04, 0x10, 0x10, 0x18, 0x0C, 0x2E, 0x12, 0x2E, 0x21,
  0x24, 0x01, 0x17, 0x27, 0x28, 0x28, 0x18, 0x19, 0x05, 0x25,
  0x1A, 0x1D, 0x24, 0x20, 0x06, 0x20, 0x2A, 0x11, 0x2B, 0x11,
  0x1E, 0x36, 0x14, 0x04, 0x25, 0x05, 0x13, 0x10, 0x1A, 0x17,
  0x25, 0x00, 0x24, 0x2C, 0x20, 0x09, 0x1D, 0xF9, 0x1A, 0x15,
  0x3A, 0x1E, 0x09, 0x0D, 0x29, 0x12, 0x2F, 0x1A, 0x08, 0x06,
  0x16, 0x28, 0x1D, 0xFE, 0xFD, 0x00, 0x18, 0x1D, 0x18, 0x13,
  0x1C, 0x10, 0xF5, 0xF7, 0x00, 0x25, 0x08, 0x07, 0x04, 0x0B,
  0x24, 0x0F, 0x21, 0x05, 0x15, 0x0C, 0x27, 0x19, 0x14, 0x1B,
  0x24, 0x1C, 0x1C, 0x05, 0x06, 0x04, 0x1D, 0x07, 0x14, 0x1B,
  0x10, 0x0B, 0x03, 0x21, 0x16, 0x25, 0x23, 0x1D, 0x1F, 0x1D,
  0x1D, 0x15, 0x26, 0x23, 0x0F, 0x0D, 0x06, 0x07, 0xFD, 0x00,
  0x11, 0x04, 0x26, 0xFB, 0x00, 0x1F, 0x05, 0x0B, 0x23, 0x02,
  0x16, 0xFE, 0x16, 0x04, 0x02, 0x01, 0x0A, 0x22, 0xFE, 0x1F,
  0x19, 0x0E, 0x0D, 0x0F, 0x1C, 0x0F, 0x0D, 0x08, 0x20, 0x03,
  0x07, 0x08, 0x0B, 0x0D, 0x0B, 0x01, 0x10, 0x07, 0x0D, 0x09,
  0x0F, 0x1E, 0x20, 0x03, 0x0E, 0x24, 0x2B, 0x16, 0x2A, 0x21,
  0x00, 0x17, 0x2A, 0x1E, 0x1A, 0x01, 0x12, 0x0C, 0x02, 0x07,
  0x08, 0x11, 0x1A, 0xF4, 0x02, 0x19, 0xE8, 0x0F, 0x21, 0xFF,
  0xEE, 0xF0, 0xED, 0x15, 0x12, 0xFA, 0xF6, 0x0E, 0x02, 0x31,
  0x08, 0xF6, 0xEF, 0x01, 0xF6, 0x16, 0x24, 0xFD, 0x05, 0x05,
  0x01, 0x13, 0x19, 0x0C, 0x0D, 0xFA, 0x0B, 0xF2, 0x08, 0xF0,
  0xFC, 0x0B, 0xEC, 0x0B, 0x1C, 0x13, 0x02, 0xFE, 0x02, 0xFD,
  0x20, 0xF4, 0xFF, 0xEF, 0xEC, 0x07, 0x1A, 0x05, 0x1C, 0x19,
  0x00, 0x12, 0x23, 0x02, 0x23, 0x15, 0x0F, 0x16, 0x08, 0x08,
  0x05, 0x14, 0x05, 0x08, 0x23, 0x11, 0x19, 0x13, 0xF9, 0x03,
  0x05, 0x16, 0x10, 0x0E, 0x17, 0x05, 0x01, 0x09, 0x19, 0x19,
  0x15, 0x16, 0xDC, 0xFF, 0xF6, 0x03, 0x10, 0x1B, 0xF7, 0xFF,
  0xEF, 0x0D, 0x03, 0x3C, 0x01, 0xF3, 0xEC, 0x0D, 0x0D, 0x38,
  0xEE, 0xF3, 0xFD, 0x0E, 0xFA, 0x3E, 0x11, 0x0E, 0xE8, 0xEA,
  0xE9, 0x21, 0x06, 0x14, 0xEB, 0xEE, 0xF4, 0x09, 0x0E, 0x00,
  0x06, 0xED, 0xEF, 0x09, 0x0C, 0xE1, 0xF6, 0xE0, 0xF6, 0x0D,
  0xFB, 0xEE, 0x12, 0x08, 0xFB, 0x12, 0x03, 0x1C, 0x27, 0x25,
  0x13, 0x20, 0x13, 0x1B, 0x02, 0xFE, 0xFA, 0x01, 0x2A, 0x15,
  0x06, 0x06, 0x0F, 0x17, 0x15, 0xF8, 0x05, 0xF6, 0x16, 0x2D,
  0x0C, 0xF9, 0x17, 0x09, 0x17, 0x11, 0xF1, 0x0A, 0x01, 0x09,
  0xF7, 0x0E, 0xED, 0x08, 0x08, 0xFE, 0x0D, 0x11, 0xF9, 0x08,
  0x06, 0x15, 0x13, 0x27, 0x06, 0x11, 0xFF, 0x14, 0x0C, 0x08,
  0x0D, 0xF9, 0xFD, 0x12, 0xF4, 0x24, 0x13, 0xE5, 0xE7, 0x08,
  0x06, 0x0F, 0x02, 0xE3, 0xEA, 0x03, 0xD9, 0x22, 0x07, 0xF7,
  0x02, 0xE3, 0xEC, 0x19, 0x04, 0xCE, 0x14, 0xE3, 0xD7, 0x10,
  0x05, 0x1B, 0x2B, 0x0F, 0x04, 0x1F, 0x1B, 0x03, 0x10, 0x18,
  0x02, 0x1C, 0x0D, 0x09, 0xFB, 0x0A, 0x11, 0xFE, 0x26, 0x11,
  0x0D, 0x13, 0xF7, 0xFA, 0x25, 0xFD, 0x1B, 0xFB, 0x13, 0xEE,
  0x1D, 0x1E, 0x03, 0x13, 0x13, 0xDB, 0x17, 0x25, 0x03, 0x1B,
  0x05, 0xF4, 0x20, 0x15, 0x21, 0x0B, 0x14, 0xF1, 0x1D, 0x16,
  0xFA, 0x1D, 0x1D, 0x20, 0x39, 0x13, 0xF1, 0x11, 0xF6, 0x0E,
  0x00, 0xF3, 0xFF, 0x1C, 0xFA, 0x03, 0xFC, 0x02, 0xF1, 0x10,
  0xF5, 0xFC, 0xDF, 0xD5, 0xF1, 0x15, 0xCA, 0x15, 0xDA, 0xCD,
  0x0C, 0xE9, 0xD2, 0x02, 0x27, 0x20, 0x30, 0x04, 0x15, 0x09,
  0x1B, 0x1D, 0x22, 0x07, 0x0C, 0x15, 0xFB, 0x1C, 0x19, 0x18,
  0x03, 0xF8, 0x1D, 0xFB, 0xEE, 0x15, 0xF9, 0xE6, 0x24, 0x1C,
  0xE4, 0x0B, 0x0B, 0x0D, 0x11, 0xF5, 0xDD, 0x16, 0x15, 0x35,
  0x1F, 0x21, 0xD3, 0x26, 0x16, 0x11, 0x04, 0x2D, 0xFA, 0x0F,
  0x22, 0xFF, 0x1E, 0x19, 0x06, 0x0F, 0x0C, 0x11, 0x01, 0x0F,
  0x09, 0x24, 0x12, 0xFE, 0xF7, 0xF9, 0xF5, 0x2C, 0xFF, 0xE3,
  0xE1, 0xED, 0x12, 0x0F, 0x0A, 0x00, 0xF4, 0xF5, 0xFE, 0x0C,
  0xE6, 0xF6, 0xF6, 0xDF, 0xF9, 0xFE, 0xE2, 0xDB, 0x02, 0x17,
  0x26, 0x15, 0x1D, 0x1D, 0x13, 0x01, 0x20, 0x13, 0x18, 0xFD,
  0x08, 0x14, 0xFC, 0x03, 0x0A, 0x11, 0xEC, 0x03, 0x00, 0x06,
  0x15, 0x0B, 0xF3, 0x00, 0xF2, 0x1F, 0x06, 0x45, 0x0C, 0xFE,
  0xC3, 0x17, 0x09, 0x43, 0x1B, 0x05, 0xC9, 0x15, 0xFD, 0x24,
  0x0C, 0x1B, 0x04, 0xED, 0x24, 0x25, 0x06, 0x04, 0x18, 0xF7,
  0x0A, 0x2A, 0x09, 0xFC, 0xFA, 0x04, 0x05, 0xED, 0xEF, 0x0B,
  0xFE, 0x05, 0x09, 0xEA, 0xEA, 0x20, 0x11, 0x15, 0x06, 0xE1,
  0xDD, 0xF2, 0x11, 0x17, 0xEA, 0xF9, 0xEC, 0xDF, 0xEC, 0xFC,
  0xDB, 0xFC, 0x07, 0x1C, 0x17, 0x19, 0x0E, 0x16, 0x03, 0x09,
  0x06, 0x1C, 0xFC, 0x12, 0x06, 0x20, 0xE5, 0x01, 0xF2, 0x1D,
  0xFD, 0x08, 0xE7, 0xFE, 0xF2, 0x28, 0xF7, 0x08, 0x02, 0x05,
  0x09, 0x58, 0x08, 0x06, 0xDE, 0xFD, 0xFE, 0x6D, 0xED, 0xE3,
  0xE7, 0x1D, 0xEC, 0x4E, 0xF6, 0xFD, 0xFD, 0x04, 0x13, 0x25,
  0x0E, 0x1B, 0x11, 0xF2, 0x02, 0xF5, 0xE1, 0x24, 0x14, 0x05,
  0x0C, 0x04, 0xE9, 0x05, 0x12, 0x12, 0x14, 0xF1, 0x02, 0x0C,
  0x1D, 0xE5, 0x1C, 0xFD, 0xFC, 0xFB, 0x15, 0xF6, 0x08, 0x01,
  0x01, 0xE5, 0xE6, 0xF2, 0xE7, 0xED, 0x0D, 0x0B, 0x1D, 0x15,
  0xFA, 0x18, 0x24, 0xEB, 0xF1, 0x06, 0xF5, 0x0C, 0x15, 0xEC,
  0xE3, 0xEA, 0xEF, 0x33, 0x05, 0x09, 0xFB, 0xDD, 0x01, 0x35,
  0xF8, 0x0D, 0x06, 0xD4, 0x12, 0x3D, 0xFA, 0xFF, 0x0B, 0x08,
  0x0A, 0x2C, 0xF5, 0xF5, 0xFE, 0x19, 0x06, 0x27, 0xE7, 0xF1,
  0xFF, 0xFA, 0x0C, 0x06, 0xF8, 0x04, 0xE6, 0xF3, 0x0A, 0x1B,
  0xFF, 0x18, 0x01, 0xF1, 0x07, 0x01, 0x1B, 0x11, 0xF4, 0xEE,
  0xFD, 0x22, 0xFD, 0x09, 0x0B, 0xBD, 0xF3, 0x13, 0x05, 0xF6,
  0x09, 0xD2, 0xF2, 0x21, 0xEF, 0xD6, 0xEC, 0xFD, 0xDD, 0x0C,
  0xFF, 0xF1, 0x0B, 0xFB, 0xF7, 0x00, 0x11, 0xFB, 0xEF, 0xE9,
  0xE8, 0x20, 0x09, 0xEE, 0xE1, 0xCB, 0xE4, 0x00, 0x21, 0x0C,
  0x00, 0xE2, 0xE3, 0x28, 0xF5, 0x18, 0x01, 0xF0, 0xFA, 0x03,
  0xD6, 0xFA, 0x0D, 0x0D, 0x0D, 0xFB, 0xEC, 0x06, 0x0C, 0x1E,
  0x1D, 0x10, 0x0B, 0xFF, 0xFC, 0x04, 0xFE, 0x03, 0x20, 0x10,
  0xDD, 0x04, 0x11, 0x29, 0x0E, 0xF9, 0xDD, 0xF2, 0xF4, 0x19,
  0x1A, 0x09, 0xF3, 0xF2, 0xF8, 0x20, 0x01, 0x00, 0xFA, 0xD6,
  0xEC, 0x24, 0x05, 0xF0, 0x0B, 0xD5, 0xED, 0x17, 0x02, 0xFC,
  0x09, 0x0E, 0xE7, 0x10, 0x04, 0x0B, 0x1A, 0x12, 0x0D, 0x16,
  0x0C, 0xE9, 0x04, 0xF6, 0x03, 0xFF, 0x14, 0xEB, 0x18, 0xE7,
  0xE2, 0xFF, 0x12, 0xE9, 0x05, 0x01, 0x02, 0x02, 0x0B, 0xE7,
  0xEE, 0xF3, 0x05, 0xF6, 0xFC, 0x04, 0x14, 0x15, 0x13, 0xF2,
  0x0B, 0x25, 0x0C, 0x16, 0x19, 0xF8, 0x0C, 0x13, 0xE7, 0xEE,
  0x06, 0x38, 0x08, 0x02, 0xED, 0x03, 0x16, 0x0E, 0xF8, 0x02,
  0xEA, 0xFE, 0xF1, 0x22, 0xEB, 0xF1, 0xF7, 0xD5, 0x02, 0x20,
  0xF7, 0xF2, 0x02, 0xD2, 0xF6, 0x04, 0xFF, 0xD7, 0xF3, 0xE2,
  0xDC, 0xF4, 0x08, 0xE0, 0xF5, 0xFA, 0x00, 0xFD, 0x01, 0x00,
  0x18, 0x00, 0x13, 0x1E, 0xF0, 0x0D, 0x38, 0x08, 0x0D, 0x07,
  0xEC, 0xEA, 0x27, 0x10, 0x0F, 0x10, 0xF9, 0xEE, 0x03, 0x13,
  0x05, 0xF9, 0xF1, 0x07, 0xD9, 0x1F, 0xFA, 0xFF, 0x04, 0x0D,
  0xE4, 0x07, 0xF6, 0x1F, 0x01, 0x17, 0xF1, 0xFF, 0xFD, 0x13,
  0x17, 0x08, 0xF4, 0xF6, 0x00, 0x2A, 0x16, 0x01, 0x0E, 0x03,
  0x00, 0x16, 0xFF, 0xFE, 0xE7, 0xE5, 0x06, 0x1D, 0xF3, 0xF9,
  0x09, 0x02, 0xEF, 0x07, 0xDD, 0xE9, 0xEA, 0x0D, 0xEE, 0xFB,
  0x01, 0xE8, 0x0E, 0x0E, 0xEC, 0xFF, 0xF9, 0x02, 0x24, 0x22,
  0x10, 0xF8, 0x00, 0xFA, 0x13, 0x11, 0xFB, 0x04, 0x1D, 0x04,
  0x06, 0x28, 0x1F, 0x0E, 0x14, 0x0E, 0x04, 0x2C, 0x0B, 0x05,
  0x14, 0xF3, 0x11, 0x0A, 0x1E, 0x2E, 0xEC, 0x14, 0xF8, 0x24,
  0x0B, 0x30, 0xFC, 0x06, 0xF5, 0x11, 0xFF, 0x07, 0xF7, 0x12,
  0x15, 0x2E, 0x1C, 0x1A, 0xF6, 0x19, 0x02, 0x23, 0x1F, 0x11,
  0xEF, 0x10, 0x0F, 0x25, 0x16, 0x11, 0xF2, 0xE9, 0x0A, 0x25,
  0xEE, 0x12, 0xDB, 0xF4, 0xEC, 0x10, 0x03, 0xF5, 0xFB, 0xF1,
  0xEC, 0x17, 0xEF, 0xE4, 0xFB, 0xFC, 0x15, 0x23, 0xFB, 0xFC,
  0x07, 0xF2, 0x08, 0x13, 0x12, 0xF6, 0x20, 0x06, 0x02, 0x13,
  0x0C, 0x19, 0x28, 0x28, 0x15, 0x1A, 0x36, 0x06, 0x24, 0x2D,
  0x12, 0x06, 0x0E, 0x0C, 0x15, 0x07, 0x0E, 0x01, 0x08, 0x18,
  0x26, 0x1C, 0x27, 0x0B, 0x13, 0x2D, 0x29, 0x10, 0x29, 0x28,
  0xFE, 0x11, 0x1B, 0x0C, 0x2D, 0x14, 0x07, 0x15, 0x12, 0xFB,
  0x2A, 0x0C, 0xF8, 0x0C, 0x11, 0x05, 0x01, 0x10, 0xF3, 0xFE,
  0x04, 0x13, 0x03, 0x1F, 0x00, 0x0A, 0x1B, 0xF2, 0xF7, 0x11,
  0xFF, 0xF1, 0x06, 0xFC, 0x11, 0x10, 0xEE, 0xF8, 0x1A, 0x18,
  0x09, 0x1E, 0x0E, 0x05, 0x1A, 0x01, 0x26, 0x24, 0xF8, 0x1E,
  0x02, 0xF7, 0xFF, 0xF4, 0x06, 0xF1, 0x0C, 0x03, 0xF3, 0xE9,
  0xFF, 0x0F, 0x11, 0xF3, 0xEB, 0xF1, 0xEB, 0xEF, 0xF6, 0xFF,
  0x10, 0xFA, 0x0B, 0xF4, 0xEA, 0x15, 0x00, 0x03, 0xFF, 0x03,
  0x0F, 0x09, 0x12, 0x09, 0xF4, 0x09, 0xF6, 0xF6, 0x10, 0xF8,
  0xF6, 0x05, 0xEE, 0x05, 0x0F, 0x07, 0x14, 0x09, 0x04, 0xF7,
  0xFD, 0x01, 0x0B, 0x09, 0xF0, 0x05, 0xF1, 0x0B, 0x09, 0xF5,
  0xF9, 0x02, 0x0C, 0x09, 0x0D, 0xF0, 0xFA, 0xFF, 0x05, 0xEE,
  0xF5, 0xF5, 0xEA, 0x0C, 0xFF, 0x02, 0x01, 0xEF, 0xFD, 0xFB,
  0xE9, 0xF7, 0x05, 0x02, 0xF8, 0xF0, 0xF2, 0x0C, 0xFF, 0xF9,
  0x0F, 0xE9, 0x04, 0x01, 0x00, 0xF1, 0xF8, 0xFE, 0x02, 0xED,
  0xEC, 0xF1, 0x0C, 0xFD, 0xF3, 0x14, 0xF2, 0x0A, 0xE8, 0x01,
  0xF7, 0x0B, 0x0D, 0xF7, 0x04, 0xFE, 0x16, 0x0F, 0x0C, 0xFE,
  0xE8, 0x11, 0xF8, 0xF3, 0x05, 0xEB, 0x08, 0xFF, 0xF6, 0x10,
  0xF5, 0xE9, 0xE7, 0xF7, 0x10, 0xFC, 0xF8, 0x0E, 0xE9, 0xF8,
  0x0F, 0xFE, 0x16, 0x03, 0x04, 0xF0, 0x07, 0x15, 0xF9, 0xF1,
  0xF0, 0xF7, 0xEB, 0x0F, 0x08, 0x02, 0xFC, 0xF8, 0x0F, 0x0F,
  0xFD, 0xF1, 0x00, 0xF6, 0x01, 0x07, 0x14, 0xF7, 0x09, 0x04,
  0xF8, 0x0E, 0x13, 0x02, 0xED, 0xFD, 0xFA, 0x0C, 0x0E, 0x09,
  0x06, 0x0A, 0xF7, 0xEB, 0xEA, 0x0D, 0x0E, 0xFD, 0xFE, 0x0F,
  0xFF, 0x04, 0x0C, 0xF6, 0x05, 0x03, 0x0F, 0x02, 0x06, 0x07,
  0xFF, 0x13, 0xED, 0x00, 0x0C, 0xF4, 0x0E, 0xFA, 0x0F, 0xEF,
  0xF3, 0xF9, 0xEE, 0xFA, 0xFF, 0xF4, 0xF4, 0x11, 0x01, 0x00,
  0x08, 0x0E, 0xFE, 0x0F, 0xFC, 0xED, 0xEA, 0x0A, 0x16, 0x0E,
  0x11, 0x01, 0x11, 0x06, 0x09, 0xFB, 0xF4, 0x0D, 0x14, 0xF7,
  0x14, 0x02, 0xF1, 0x09, 0xFC, 0xF6, 0xF7, 0xF4, 0x11, 0xF8,
  0xED, 0xFE, 0x0A, 0xE9, 0x0A, 0xFF, 0xED, 0x0A, 0x0F, 0x04,
  0xFE, 0xFB, 0x09, 0x03, 0xF8, 0xF0, 0xFC, 0x09, 0xFC, 0x10,
  0x09, 0x00, 0xEC, 0x03, 0xFC, 0x03, 0xF6, 0xF0, 0xF4, 0xEA,
  0xEB, 0x05, 0xF7, 0xF4, 0xEE, 0xF9, 0xF6, 0x0F, 0xF3, 0xF3,
  0x0F, 0xEA, 0xEB, 0x11, 0x00, 0x0C, 0xEF, 0x03, 0xEF, 0xFF,
  0xF6, 0x0A, 0x01, 0x00, 0xED, 0x11, 0xF1, 0xE8, 0xF2, 0x05,
  0xED, 0x11, 0xEB, 0xF5, 0x0C, 0x07, 0xF0, 0x11, 0x09, 0xEA,
  0xFF, 0xFA, 0x09, 0x04, 0xFB, 0xED, 0xEC, 0x13, 0x0A, 0xEE,
  0x0E, 0xEE, 0x04, 0xFC, 0xF5, 0x01, 0x09, 0x10, 0xED, 0x08,
  0x06, 0x0B, 0xFF, 0xFE, 0xF5, 0x0F, 0xFD, 0x0D, 0xF2, 0xF0,
  0x11, 0xF0, 0xF9, 0x02, 0x0C, 0xFF, 0xF7, 0x11, 0xF4, 0xF9,
  0x0B, 0xF3, 0xEA, 0xF0, 0x0A, 0x08, 0xED, 0xF9, 0x0A, 0x02,
  0xF8, 0x12, 0x0E, 0xFF, 0x05, 0xF3, 0xFB, 0x01, 0x05, 0xF6,
  0x09, 0xF8, 0xEF, 0xE9, 0xF4, 0xEA, 0x10, 0x02, 0xEA, 0x07,
  0x04, 0xE7, 0xFB, 0x0D, 0x07, 0xF9, 0x04, 0xF6, 0xEC, 0x0B,
  0x0F, 0xF2, 0x12, 0x0E, 0xF7, 0xF5, 0x04, 0x05, 0xF5, 0x08,
  0x00, 0xF8, 0x01, 0x03, 0xF5, 0xFE, 0x0E, 0xF4, 0x0F, 0x0E,
  0xE9, 0x0D, 0x04, 0x01, 0xFF, 0x0E, 0xF1, 0x0A, 0xF2, 0x07,
  0xFD, 0xFE, 0xF6, 0x0E, 0xF8, 0x0F, 0x03, 0xEB, 0xF0, 0x10,
  0xFE, 0x0E, 0xFB, 0xFA, 0xFF, 0xF5, 0xED, 0xF7, 0xEC, 0xF7,
  0xEC, 0xFB, 0xFC, 0xEF, 0xF5, 0xEF, 0x06, 0xF2, 0xF0, 0xFA,
  0x00, 0x10, 0xEF, 0xF6, 0xEC, 0x0F, 0x0C, 0xED, 0x04, 0xEF,
  0xF7, 0xF5, 0xEB, 0x02, 0x02, 0x0C, 0xED, 0xF4, 0xED, 0x06,
  0xEC, 0x03, 0xF3, 0xFD, 0xFE, 0xF2, 0x0C, 0x0F, 0xF0, 0x0F,
  0x14, 0xE8, 0x02, 0x0C, 0x0C, 0xFD, 0xFB, 0xEE, 0xF0, 0x01,
  0xEE, 0x0A, 0xFD, 0x10, 0x02, 0x10, 0xED, 0x0D, 0xF6, 0x05,
  0x0B, 0xF8, 0x0A, 0x01, 0xF1, 0x00, 0xFB, 0x0C, 0x04, 0x06,
  0x07, 0xE8, 0x07, 0xF0, 0xEF, 0xF8, 0xF1, 0xFD, 0x0B, 0x0A,
  0xEA, 0xEE, 0xFB, 0x13, 0xF4, 0xEA, 0xF7, 0xEC, 0x00, 0x0F,
  0xEF, 0x08, 0xF5, 0x0A, 0xE9, 0xFA, 0x0C, 0xF5, 0xF9, 0xE8,
  0xE7, 0x04, 0xF2, 0xF5, 0x02, 0xEA, 0xFD, 0x01, 0xFF, 0x11,
  0x02, 0x08, 0x0D, 0xFA, 0x04, 0xFE, 0x0A, 0xF1, 0xFF, 0xF2,
  0x0F, 0xEF, 0x04, 0xF2, 0x09, 0xF4, 0xFE, 0xEE, 0xFE, 0xEB,
  0x02, 0xFC, 0x05, 0x13, 0x0E, 0xFF, 0xF4, 0x05, 0x08, 0x0D,
  0x00, 0x0F, 0x14, 0xEC, 0x02, 0xF6, 0xFB, 0x0F, 0x12, 0x03,
  0x01, 0xFC, 0xF9, 0x08, 0xF8, 0xEF, 0x02, 0xF4, 0xFC, 0xEE,
  0x01, 0x05, 0xFC, 0x01, 0xE6, 0x01, 0xFD, 0x04, 0x05, 0xE8,
  0xEA, 0xF2, 0xF4, 0xF9, 0x0D, 0xF4, 0xFA, 0xF2, 0xF9, 0x02,
  0x07, 0xEC, 0x0C, 0x0B, 0xF8, 0xEA, 0xEA, 0x02, 0xEA, 0xFD,
  0xEA, 0x03, 0xF2, 0xFA, 0x05, 0x06, 0xED, 0x0B, 0x0B, 0x0F,
  0xF8, 0x00, 0x11, 0x0C, 0xF3, 0xFA, 0xFB, 0x04, 0xEF, 0xF8,
  0xFB, 0x0F, 0x12, 0x0D, 0x18, 0x00, 0x0C, 0x0D, 0xEE, 0xFF,
  0x09, 0x00, 0xF2, 0xFC, 0xF7, 0xF1, 0x05, 0xE9, 0xFA, 0x03,
  0x11, 0xEB, 0x01, 0x03, 0xEB, 0x0F, 0xFD, 0xEC, 0xEC, 0xEF,
  0x0A, 0xEE, 0x13, 0xF1, 0xEA, 0x10, 0xF8, 0xFB, 0xF1, 0x00,
  0xF1, 0x09, 0x08, 0xEF, 0x08, 0xFD, 0x02, 0x03, 0xF3, 0x04,
  0xE8, 0xEA, 0xEC, 0xF7, 0x06, 0xF6, 0xF6, 0x00, 0xEA, 0x02,
  0x0A, 0xF1, 0xFD, 0xF4, 0xFA, 0x0B, 0x00, 0xFC, 0xE9, 0xF9,
  0xF9, 0xF1, 0xF1, 0x00, 0xF7, 0x0B, 0x06, 0x06, 0xF0, 0x11,
  0x01, 0x0C, 0xED, 0x0A, 0xE9, 0x0E, 0xFB, 0xF6, 0xF8, 0xF0,
  0xF1, 0x0B, 0x01, 0x0D, 0xE5, 0x0B, 0x12, 0xF2, 0xFC, 0x0E,
  0x10, 0xF4, 0x10, 0x07, 0xEA, 0x10, 0x00, 0x10, 0xF1, 0x12,
  0x0F, 0x01, 0x01, 0x09, 0xF5, 0x05, 0x15, 0x01, 0xF1, 0xEA,
  0xFF, 0xEB, 0xF4, 0xF5, 0x07, 0xFF, 0x0B, 0xF9, 0xFF, 0x04,
  0x03, 0x0C, 0x0C, 0xEC, 0x06, 0x10, 0x0B, 0x06, 0x0F, 0xF6,
  0x04, 0x08, 0xEE, 0xF1, 0x07, 0x05, 0xF4, 0xF3, 0x02, 0xF3,
  0xF6, 0xF4, 0xFB, 0x0A, 0x0B, 0xED, 0x06, 0x11, 0xF5, 0x0A,
  0xFF, 0xF7, 0xF4, 0x05, 0xF1, 0x0D, 0xEE, 0xF4, 0x07, 0x10,
  0x07, 0xF6, 0xF6, 0xFD, 0xF8, 0x01, 0x12, 0x10, 0xF5, 0xF8,
  0xFD, 0xF7, 0x0B, 0xE9, 0xEC, 0xFF, 0x01, 0x13, 0x11, 0xF2,
  0xF3, 0xEC, 0xF8, 0x15, 0xFF, 0xF7, 0x09, 0xF2, 0xF0, 0xFB,
  0x13, 0xF6, 0xFC, 0xFD, 0x0B, 0x11, 0x01, 0xFA, 0x0E, 0x01,
  0xFC, 0xFD, 0x0C, 0x01, 0xFA, 0xEE, 0x11, 0x06, 0xFF, 0xF4,
  0xF0, 0x05, 0x0D, 0xF0, 0x04, 0x0B, 0xEB, 0x09, 0x0A, 0xFC,
  0xEC, 0x17, 0xEE, 0xF5, 0xED, 0xF0, 0xF2, 0x03, 0x02, 0x0B,
  0x16, 0x10, 0xFA, 0xF4, 0x0F, 0xF7, 0x0C, 0xEE, 0xF0, 0x04,
  0x07, 0xF8, 0xFE, 0x12, 0xFE, 0x00, 0xEE, 0x11, 0xF5, 0xED,
  0x03, 0xFA, 0xE8, 0xF1, 0xFE, 0xF9, 0xF6, 0x07, 0xEB, 0xF8,
  0xF5, 0x07, 0x02, 0xF8, 0xF4, 0x0D, 0xF3, 0xF5, 0x04, 0x02,
  0xF2, 0xFF, 0xED, 0xFE, 0x01, 0xEB, 0xF1, 0x0B, 0xF6, 0x09,
  0x01, 0x0C, 0xEE, 0xFC, 0x07, 0x13, 0xF2, 0xFB, 0x0C, 0x07,
  0xF3, 0x13, 0xFF, 0xFA, 0xFF, 0x0C, 0xF7, 0xFB, 0xFF, 0xFF,
  0xF5, 0xF2, 0x16, 0x07, 0xFB, 0xF0, 0x09, 0x11, 0xFC, 0x0C,
  0x02, 0xFB, 0xF9, 0xF9, 0x00, 0xFB, 0xF4, 0xF5, 0xFE, 0xF4,
  0x0F, 0xF0, 0x05, 0xF1, 0x0E, 0x04, 0x0E, 0xFC, 0xEC, 0xF2,
  0xE7, 0xF2, 0x01, 0x05, 0xF1, 0xEC, 0xFC, 0xF0, 0xEE, 0xF7,
  0x0A, 0xFA, 0x06, 0xF5, 0xEC, 0xEF, 0xFF, 0x13, 0x11, 0x11,
  0xED, 0x15, 0x01, 0xFF, 0xFD, 0xF5, 0x08, 0x0A, 0xEC, 0xF2,
  0xE9, 0x07, 0xFB, 0xF7, 0x11, 0xF3, 0xEA, 0xF2, 0x00, 0x12,
  0x05, 0x10, 0x05, 0xEB, 0x12, 0xEB, 0xF2, 0x0C, 0x05, 0x0F,
  0x08, 0xF3, 0xEA, 0x0D, 0x09, 0xFE, 0x06, 0xEA, 0xF8, 0x06,
  0xF6, 0xF1, 0xEB, 0x08, 0x0E, 0xEB, 0x0D, 0x0F, 0xE9, 0x03,
  0xFB, 0xFD, 0xF4, 0x12, 0x03, 0xF9, 0xF8, 0x0F, 0xF9, 0xFD,
  0xFE, 0xEE, 0x0B, 0xFA, 0xFD, 0xF9, 0x0C, 0x04, 0x10, 0xFC,
  0x0B, 0x0A, 0xFC, 0xEC, 0xF0, 0xEA, 0x04, 0xF3, 0xEB, 0xF6,
  0x0D, 0xFE, 0x11, 0xEE, 0xF4, 0x05, 0x09, 0xFA, 0xF0, 0xF0,
  0xF3, 0xF6, 0xFF, 0x08, 0xFA, 0xF1, 0xEA, 0xFE, 0x13, 0xE9,
  0xFD, 0xF1, 0xF5, 0xE7, 0xED, 0x0E, 0x0C, 0xE9, 0x06, 0xFD,
  0x03, 0xE8, 0x0E, 0xE9, 0xF4, 0x0E, 0xF7, 0x0B, 0xF3, 0xFF,
  0xEF, 0xF6, 0xF2, 0x0C, 0xFF, 0xF5, 0x08, 0x05, 0xE8, 0x04,
  0xFF, 0x09, 0xEC, 0x08, 0xFB, 0xEE, 0xF0, 0x10, 0x0C, 0xEC,
  0x06, 0xF3, 0x0D, 0xFD, 0x01, 0x0A, 0x11, 0xEF, 0xF2, 0x09,
  0xF9, 0xFD, 0xF4, 0x0D, 0xFF, 0xF8, 0x10, 0xF3, 0x16, 0x02,
  0xFB, 0x03, 0x0F, 0xF5, 0x04, 0xFB, 0xF3, 0x08, 0x12, 0x0A,
  0x08, 0xFF, 0xEF, 0xFE, 0xF5, 0x04, 0x17, 0xF8, 0x08, 0xF6,
  0x15, 0x1B, 0x0E, 0xFC, 0x05, 0x12, 0x02, 0x0B, 0x0C, 0x26,
  0x1A, 0xF4, 0x02, 0xF9, 0x15, 0x00, 0x13, 0x02, 0x16, 0xFC,
  0xFD, 0x21, 0x06, 0x10, 0xF1, 0xFA, 0xF6, 0x16, 0xF4, 0x08,
  0xF9, 0x15, 0x04, 0xF8, 0xFB, 0x0E, 0xF8, 0x03, 0x00, 0xF8,
  0x02, 0xFF, 0xF7, 0x00, 0xFD, 0xFE, 0x0C, 0xF2, 0x0C, 0x0F,
  0x07, 0x04, 0x0B, 0x16, 0xFE, 0xF8, 0xEF, 0x09, 0x16, 0x04,
  0xF5, 0xEB, 0xFD, 0xF5, 0x01, 0x03, 0xF7, 0xFC, 0xFD, 0xF4,
  0xF6, 0x09, 0x0F, 0xF4, 0x03, 0x11, 0xF6, 0x19, 0x01, 0xF5,
  0x0D, 0xFD, 0x02, 0x16, 0x12, 0x15, 0x16, 0xFD, 0x03, 0xF8,
  0x00, 0x10, 0xFC, 0x07, 0xFD, 0xFF, 0xFE, 0x11, 0xFF, 0x15,
  0x01, 0x05, 0x11, 0xFA, 0x19, 0x13, 0xFA, 0xF6, 0x06, 0xFE,
  0xFD, 0x11, 0xFA, 0xF0, 0xE7, 0xF0, 0x04, 0xFA, 0x02, 0x02,
  0xF4, 0xFE, 0xE9, 0xF8, 0xFF, 0xF9, 0x0F, 0xE7, 0x00, 0x02,
  0xE9, 0x02, 0x05, 0x0B, 0xF0, 0x09, 0xFC, 0xFC, 0x14, 0x0E,
  0x00, 0x07, 0x1D, 0x18, 0x09, 0x13, 0x00, 0x0B, 0xF3, 0x0C,
  0x09, 0xF6, 0x12, 0xF5, 0x0F, 0x00, 0xED, 0x0A, 0x0F, 0x02,
  0x12, 0x15, 0xF8, 0x05, 0x06, 0x0B, 0x1A, 0x01, 0x23, 0x02,
  0x22, 0x23, 0x0D, 0x03, 0x0E, 0x19, 0x11, 0xFF, 0x26, 0xE0,
  0x25, 0x00, 0x03, 0x03, 0x1E, 0xDA, 0x30, 0x1B, 0xF3, 0x0E,
  0x0B, 0xCB, 0x13, 0x14, 0xF7, 0x02, 0xFD, 0xD3, 0x0A, 0xF5,
  0x08, 0x09, 0x09, 0xD8, 0x09, 0xF9, 0xF5, 0x0C, 0x0E, 0x07,
  0xFD, 0xEE, 0xE6, 0x0E, 0x13, 0xFC, 0x10, 0xFD, 0xF8, 0xF7,
  0xF8, 0x19, 0x06, 0x01, 0x18, 0x11, 0x0F, 0xF9, 0x07, 0xF8,
  0x0D, 0x03, 0x0E, 0x0E, 0x08, 0x0D, 0x0A, 0x12, 0xFB, 0x09,
  0x16, 0xEC, 0xEE, 0x08, 0xED, 0x1F, 0x28, 0x0B, 0x1B, 0x0A,
  0x17, 0x03, 0x27, 0x1B, 0x20, 0x1C, 0x0D, 0xF2, 0x25, 0x0F,
  0x26, 0x01, 0x1E, 0xD1, 0x1C, 0x14, 0x18, 0x01, 0x1C, 0xDD,
  0x2D, 0x19, 0x12, 0x1A, 0x17, 0xDE, 0x1B, 0x1A, 0x19, 0x18,
  0x06, 0xC6, 0x27, 0x02, 0x14, 0x1E, 0xF9, 0xE2, 0xF7, 0x08,
  0x12, 0x21, 0x0E, 0xFD, 0x0C, 0x14, 0x00, 0x00, 0x15, 0xF6,
  0xF3, 0xF1, 0xF9, 0xFE, 0x01, 0x0B, 0x0E, 0xFB, 0x15, 0x1C,
  0x07, 0x19, 0xF5, 0xF9, 0xF5, 0x09, 0xFA, 0x0A, 0x03, 0xE6,
  0x00, 0xE9, 0xE8, 0x06, 0x2D, 0xE2, 0xDB, 0xE8, 0xE4, 0x16,
  0x26, 0x04, 0x03, 0x06, 0xF1, 0x07, 0x38, 0x0D, 0xF6, 0xEE,
  0xF4, 0x09, 0x23, 0x03, 0x0C, 0xD8, 0xF8, 0xD6, 0x40, 0x0B,
  0xF8, 0xCA, 0xE4, 0xEB, 0x25, 0xF9, 0x09, 0xDA, 0xF0, 0xF2,
  0x11, 0x03, 0x0D, 0xF0, 0xFB, 0xBC, 0x22, 0x06, 0x02, 0x12,
  0xF0, 0xE6, 0x04, 0xFE, 0x08, 0x09, 0xF4, 0xF6, 0x05, 0x07,
  0xEF, 0xF0, 0xFC, 0x02, 0x04, 0x01, 0x08, 0xEA, 0x09, 0xEB,
  0x15, 0x00, 0xF8, 0x08, 0x18, 0xEF, 0xFA, 0xE4, 0xF5, 0xF0,
  0xE9, 0x15, 0x09, 0xD2, 0xEB, 0xED, 0xE5, 0x18, 0x1C, 0xD9,
  0xF2, 0xC8, 0xD2, 0x30, 0x1A, 0xFE, 0xCF, 0xF1, 0xE4, 0x00,
  0x3C, 0xFB, 0xE8, 0xD9, 0xFE, 0xF0, 0x3C, 0xE5, 0xDA, 0xD6,
  0xE2, 0xEC, 0x39, 0xE8, 0xD9, 0xCC, 0xE0, 0x06, 0x18, 0xE6,
  0xEA, 0xE0, 0xEA, 0x08, 0x25, 0xFB, 0xEB, 0xDE, 0xF0, 0xEA,
  0x02, 0xFD, 0x19, 0xE5, 0xE6, 0xF3, 0xFC, 0xE9, 0xF3, 0xE8,
  0xF9, 0x1B, 0x0C, 0xF1, 0xDB, 0x05, 0xE4, 0xFD, 0x13, 0xEF,
  0x0E, 0xFA, 0x04, 0xFD, 0x2A, 0x14, 0xF8, 0x0F, 0x31, 0x14,
  0xF6, 0xEA, 0x01, 0xFF, 0xFF, 0x0D, 0x00, 0xF2, 0x01, 0xE4,
  0xD4, 0x15, 0x34, 0xE3, 0xF5, 0xF7, 0xD9, 0xFA, 0x3E, 0xE9,
  0xF6, 0xF7, 0xE7, 0x06, 0x29, 0xF0, 0xE5, 0xF8, 0xED, 0xD8,
  0x03, 0xF7, 0xED, 0x0A, 0xF2, 0xEC, 0xF5, 0xDF, 0x06, 0x1A,
  0xF2, 0x12, 0xD2, 0xF0, 0xEA, 0x07, 0xE5, 0x17, 0xE0, 0xEA,
  0xF7, 0xF3, 0xF3, 0x0F, 0xF0, 0xE3, 0xFB, 0xE5, 0xF6, 0xFC,
  0x01, 0xE6, 0xDF, 0xFD, 0xF3, 0x06, 0xFF, 0xFA, 0xDD, 0xF7,
  0xDD, 0xEF, 0x04, 0x01, 0xF2, 0x02, 0x0D, 0xF1, 0x01, 0x0C,
  0x19, 0x0D, 0x24, 0x15, 0xFB, 0x10, 0xF6, 0xF3, 0x05, 0x14,
  0xF7, 0x0B, 0x07, 0x08, 0xF8, 0x0E, 0xF7, 0xD4, 0x13, 0x15,
  0xDC, 0x16, 0x2F, 0xF1, 0xF0, 0x26, 0xF1, 0x07, 0x2D, 0xE4,
  0xE8, 0x40, 0x00, 0xED, 0xF8, 0x01, 0xF7, 0x1B, 0xFD, 0x05,
  0xFA, 0xEC, 0x1B, 0x1E, 0x05, 0x0E, 0xD3, 0xEA, 0x00, 0x05,
  0xE8, 0x20, 0xDF, 0xFA, 0xE7, 0x17, 0x03, 0x03, 0x0B, 0xEF,
  0xF9, 0x08, 0x03, 0x0F, 0x0A, 0xE0, 0x08, 0x03, 0xDA, 0x0A,
  0x00, 0xE8, 0xE9, 0x10, 0xE3, 0x00, 0x01, 0xEE, 0x0A, 0x1B,
  0x0B, 0xF4, 0x27, 0x12, 0x12, 0x24, 0x2B, 0xF9, 0xF0, 0x09,
  0x11, 0x0B, 0xF1, 0xFA, 0xEE, 0xFA, 0x10, 0x1E, 0xFB, 0x0B,
  0xE3, 0xEC, 0x21, 0x03, 0x09, 0xFD, 0xF2, 0xE2, 0xEE, 0x2A,
  0xFB, 0x07, 0x19, 0xF5, 0xFA, 0x2D, 0x0A, 0x2B, 0xFB, 0xF5,
  0x02, 0x0D, 0xFF, 0x3E, 0x01, 0x14, 0x22, 0x08, 0x0A, 0x47,
  0xDF, 0x11, 0x11, 0x15, 0xEC, 0x28, 0x15, 0x08, 0x03, 0x0D,
  0xFA, 0xEF, 0x06, 0x01, 0xF9, 0xF3, 0xFC, 0x0A, 0xFE, 0xDD,
  0x0B, 0x1E, 0xEB, 0x03, 0x20, 0xFF, 0x0C, 0x16, 0xF2, 0xDE,
  0x0D, 0xFA, 0xFA, 0x2B, 0xFE, 0xEA, 0x07, 0x18, 0x15, 0x25,
  0x12, 0x1C, 0x10, 0xFF, 0x0F, 0x06, 0x20, 0x08, 0x07, 0x0C,
  0x00, 0x07, 0x19, 0xEC, 0xE3, 0x0C, 0xFA, 0xFD, 0xF0, 0x06,
  0xE3, 0xFF, 0xFF, 0x0B, 0x12, 0x1F, 0xE9, 0xF4, 0x06, 0x2F,
  0x08, 0x2A, 0xDC, 0x11, 0x07, 0xFF, 0x08, 0x4D, 0xE8, 0x01,
  0x14, 0x11, 0xF7, 0x21, 0x07, 0x14, 0x04, 0xFA, 0x10, 0xFB,
  0xFA, 0x10, 0x13, 0x14, 0xF1, 0x02, 0x17, 0xE8, 0x06, 0x1E,
  0x08, 0x0C, 0x0B, 0xFF, 0x10, 0x1B, 0x10, 0xE1, 0x0C, 0x0F,
  0x09, 0x2B, 0x13, 0xD9, 0x1E, 0x00, 0x03, 0x35, 0x04, 0xFF,
  0x03, 0x24, 0x2B, 0x20, 0x33, 0x17, 0x18, 0x08, 0x18, 0x06,
  0xFB, 0x13, 0x0E, 0x23, 0xFC, 0x0E, 0x04, 0xF2, 0xFF, 0x17,
  0xEC, 0xFC, 0xF1, 0xFC, 0xF2, 0x09, 0xFF, 0x1A, 0x0A, 0x11,
  0x04, 0x0F, 0x0D, 0x10, 0x1F, 0x0F, 0xFE, 0xFA, 0x11, 0xFB,
  0x14, 0x0F, 0x0B, 0x09, 0x22, 0xF1, 0x13, 0x04, 0x16, 0x00,
  0x09, 0xFD, 0xF7, 0x02, 0x19, 0x00, 0x0E, 0x01, 0x0A, 0x08,
  0x14, 0xE8, 0x06, 0x23, 0x06, 0xE3, 0x0C, 0xFE, 0xFD, 0x31,
  0xFB, 0xE0, 0x12, 0x06, 0xF8, 0x25, 0xFA, 0xDD, 0x11, 0xF9,
  0x02, 0x0D, 0xFB, 0xFA, 0x18, 0x03, 0x0A, 0x16, 0x1C, 0x09,
  0xFE, 0x08, 0x12, 0xF5, 0x0E, 0xF9, 0x0E, 0x01, 0xFE, 0x02,
  0xF7, 0x0B, 0xF2, 0xF7, 0x0A, 0x0C, 0x10, 0x16, 0x0E, 0xFF,
  0xEA, 0x03, 0x09, 0x2B, 0xF8, 0xFB, 0x05, 0x09, 0xFF, 0x02,
  0x20, 0x24, 0x10, 0x03, 0x18, 0xEC, 0x07, 0x0C, 0x16, 0xF7,
  0xFC, 0xFB, 0x03, 0xFA, 0x16, 0xFA, 0x05, 0xF0, 0x09, 0x04,
  0x04, 0xF9, 0xFF, 0xFF, 0x11, 0xFA, 0x13, 0x01, 0xEC, 0xFB,
  0x14, 0x0B, 0xF8, 0x2C, 0x06, 0xED, 0x03, 0xFD, 0xFE, 0x0D,
  0xFB, 0x02, 0x07, 0x06, 0xF8, 0x09, 0x22, 0xFB, 0x09, 0x0C,
  0x1C, 0x04, 0x1C, 0xF9, 0xF9, 0x02, 0xF4, 0xED, 0x11, 0x14,
  0xFF, 0xF7, 0xEF, 0xEC, 0x15, 0x0B, 0x02, 0x17, 0xE5, 0x0B,
  0xF9, 0x1B, 0xFA, 0x0F, 0x04, 0xE4, 0x1C, 0x1B, 0x16, 0x0D,
  0xF4, 0xFB, 0xFC, 0x14, 0x01, 0x1B, 0x09, 0xFB, 0xFC, 0xF0,
  0x07, 0xFC, 0x05, 0x03, 0x20, 0xF9, 0x04, 0xF5, 0x0A, 0xDE,
  0x17, 0x08, 0x17, 0xF2, 0xFC, 0xF5, 0x0A, 0x04, 0x0B, 0x05,
  0xED, 0xF5, 0x0A, 0xE8, 0xF0, 0x05, 0xF0, 0x05, 0x07, 0x1A,
  0x15, 0x11, 0x07, 0x0F, 0x14, 0xFF, 0xF4, 0x03, 0x05, 0x14,
  0xF7, 0x08, 0x02, 0x14, 0xF5, 0x09, 0xF6, 0x1E, 0xFD, 0xE8,
  0x06, 0xF5, 0xE3, 0x04, 0x08, 0xEF, 0xF6, 0x12, 0xEE, 0x0E,
  0xF2, 0x09, 0x10, 0x08, 0xE7, 0xF6, 0xF0, 0xEE, 0x09, 0x10,
  0x04, 0x03, 0x05, 0x03, 0xF6, 0xF6, 0x08, 0xF8, 0x02, 0x19,
  0xEE, 0xF7, 0x02, 0x05, 0x02, 0x21, 0x06, 0xF0, 0xFE, 0x07,
  0x18, 0x23, 0xF2, 0x05, 0x07, 0xF8, 0x1B, 0x05, 0xF9, 0x0A,
